{
  "ĠCompounds": 75056,
  "Coffee": 125774,
  "Ġpossessions": 55084,
  "å¾Ī": 1168,
  "ĠStarter": 119384,
  "isme": 18446,
  "ogg": 31985,
  "Ãºst": 93295,
  "td": 5333,
  "èĲ½åľ¨äºĨ": 81240,
  "Integer": 13560,
  "èı±": 39289,
  "èĩªè´¸": 95681,
  "æľ¬æłĩåĩĨ": 124740,
  "æ²Ĵæľī": 8101,
  "æ²§æ¡ĳ": 77843,
  "Ġsubsidies": 51794,
  "çļĦåİŁçĲĨ": 96712,
  "Orig": 106997,
  "Ġposible": 50164,
  "ĠHCF": 90995,
  "ĠAssociate": 34124,
  "Ġsuspension": 28197,
  "abet": 7307,
  "æ²īå¯Ĥ": 105921,
  "Ġ'<": 45322,
  ".readlines": 124794,
  "Ġresonance": 29103,
  "åĽłä¸ºæĪĳ": 42546,
  "ï¼Ĭ": 65939,
  "ĠÃ©p": 33401,
  "æĹ©äºĨ": 113707,
  "ĠDoor": 48588,
  "ÑĽÐ¸Ð½": 22220,
  "å¯Ĵé£İ": 99829,
  "åŃ¦åĪ°äºĨ": 104237,
  "apply": 30394,
  "ĠPose": 82441,
  "Ġpx": 53440,
  "é»ĥéĩĳ": 79968,
  "ĠEqs": 96373,
  "ĠAns": 42875,
  "åı¯ä¹Ĳ": 66939,
  "Ġamplifiers": 97069,
  "-inflammatory": 39423,
  "ãĥĥ": 9870,
  "ä½ĵèĤ²æ´»åĬ¨": 123388,
  "YO": 114982,
  "ç»¿çļĦ": 86080,
  "è¿Ļé¡¹å·¥ä½ľ": 113735,
  "-forward": 90527,
  "³": 114,
  "×Ķ": 2768,
  "calculated": 127461,
  "ginas": 86601,
  "urin": 79491,
  "è¯īè¯´": 113572,
  "Ġexempt": 35923,
  "ĠGandhi": 53730,
  "ä½łè¯´çļĦ": 72600,
  "ä¸Ĭä¸ĩ": 95339,
  "à®¾à®Łà¯įà®Ł": 104749,
  "Ã¤lla": 24450,
  "çİ©èĢį": 57468,
  "Ġnarrative": 16145,
  "ĠBrighton": 76708,
  "Ġadvertising": 20179,
  "å¦Ĩå®¹": 120788,
  "ĠLeader": 35637,
  "Ġinteractive": 18567,
  "alink": 85694,
  "Ġstops": 26012,
  "Ġersten": 50330,
  "ĠDura": 106867,
  "ãĢĤ**ĊĊ": 109052,
  "(s": 3982,
  "ĠBears": 62114,
  "æ¨Ĭ": 46108,
  "iless": 100846,
  "ĠEXAMPLE": 122970,
  "ĠÐ³Ð¾Ð´Ð¸": 9247,
  "Ġcleaner": 46534,
  "jektiv": 117643,
  "notes": 33955,
  "onces": 43149,
  "(char": 35329,
  "äºĭäºĭ": 72433,
  "ĠPrime": 11791,
  "å¯¼æ¼Ķ": 26833,
  "çĽĺçļĦ": 83235,
  "æļĤè¡ĮåĬŀæ³ķ": 115027,
  "initely": 32720,
  "å¿ħé¡»åħĪ": 127564,
  "çĹ´": 29482,
  "ĠÐĳÐµÐ¾Ð³ÑĢÐ°Ð´": 126218,
  "ç©«": 127473,
  "ĠÑģÐµÐ²ÐµÑĢ": 91193,
  "å°ıå¾®ä¼ģä¸ļ": 124259,
  "è¡¨éĿ¢çļĦ": 51286,
  "ĠÏ": 120280,
  "Ġwied": 65245,
  "ĠRoad": 12914,
  "Ġendl": 19225,
  "à¥¯": 49588,
  "å¥½åĲĥ": 35574,
  "æĹħé¦Ĩ": 67350,
  "Ġnouve": 43472,
  "éĿĴæ¢ħ": 127327,
  "æĪĳéĻ¢": 41295,
  "Economic": 68277,
  "ä»·æł¼ä¸Ĭæ¶¨": 99270,
  "fellow": 127613,
  "åħ¬åħĥ": 27144,
  "å¼ºå¼±": 85860,
  "éĽħåħ¸": 86315,
  "Ġreject": 11483,
  "æĸŃç»Ń": 109830,
  "ÖĦÕ«": 113210,
  "Ġtohoto": 119826,
  "ä¸ªæĢ§": 22302,
  "ĠZimmerman": 119825,
  "ÑĤÐ¸Ð²": 8741,
  "ĠÙĬØ¯": 66928,
  "ĨãĤ£": 103981,
  "æĺ¯éĿŀå¸¸": 25771,
  "ÙĥÙĦØ©": 108499,
  "Ġtragic": 39291,
  "è¦ģå¡ŀ": 124001,
  "ĠFors": 57073,
  "Ġsr": 57001,
  "Ġchatbots": 122702,
  "pis": 62848,
  "Ġfunzione": 91702,
  "Close": 22811,
  "æķ´åĲĪ": 20826,
  "ĠPointer": 122139,
  "çĶļèĩ³ä¼ļ": 112994,
  "Ġpropagation": 34542,
  "Ġtighter": 78935,
  "ç¥Ĳ": 91102,
  ".concurrent": 76368,
  "Ġballoon": 41415,
  "è°ĵè¯Ń": 95635,
  "ä¸Ģä¸ĭå°±": 110351,
  "å¹³æ°ĳ": 55263,
  "Ident": 19052,
  "ï¼ģï¼ģï¼ģ": 52674,
  "yp": 3094,
  "ĠSn": 17441,
  "ĠOnes": 59127,
  "isher": 6945,
  "Ġmanifested": 61603,
  "Ġended": 12110,
  "å®ŀéĻħæĥħåĨµ": 32395,
  "Divid": 86987,
  "èĭ±ä¿Ĭ": 89754,
  "ĠØ¹ÙĦÙĬÙĩØ§": 65372,
  "transform": 61095,
  "\"?ĊĊ": 107265,
  "uzione": 41677,
  "ATIC": 99883,
  "çĸĳ": 5332,
  "ĠTommy": 47676,
  "ĠAF": 26174,
  "Ġmentors": 68054,
  "Ġsosten": 57982,
  "Ġhiber": 120894,
  "ä¹Łå¾Īéļ¾": 102384,
  "ä¹ŁåĪ«": 100316,
  "Ġfucking": 51133,
  "ĠSEK": 123046,
  "roups": 4236,
  "Ġtrillion": 33516,
  "kin": 8705,
  "ä½Ĩè¿Ļç§į": 84438,
  ",r": 39312,
  "ĠDefic": 62008,
  "çļĦä¸Ģåı¥": 124744,
  "ĠÐĳÐ°": 51904,
  "èĭ±éĽĦ": 15709,
  "ĠUniversities": 60980,
  ".Current": 80053,
  "æļĹç¤º": 42072,
  "è®¾è®¡": 3774,
  "Ġprotrud": 90585,
  "ä¸Ģæ¬¾": 48725,
  "Operator": 60199,
  "+d": 61963,
  "æ¤Ń": 40326,
  "å¤¢æĥ³": 126242,
  "Û±Û¶": 120132,
  "cream": 111027,
  "ĠÑĥÑĩ": 37544,
  "Ð»ÐµÑĤ": 20792,
  "Ġpennies": 120955,
  "Ġvo": 4473,
  "Ġpri": 4020,
  "æĬĵåĪ°": 113544,
  "Ø¹Ø¨": 31277,
  "ãģĻãĤĭ": 7220,
  "Ġroof": 17489,
  "Ġprzeci": 63269,
  ".from": 38425,
  "èĩ´åĳ½": 70551,
  "Patent": 50575,
  "åİ»çľĭçľĭ": 72562,
  "ĠÑģÐ²Ð¸Ð´ÐµÑĤÐµÐ»ÑĮ": 98945,
  "ediatric": 87794,
  "éĥ½çĿ£": 112012,
  "åĬ³åĬ¨çļĦ": 113676,
  "å¸¸è§ģçļĦ": 25873,
  "ĠConflict": 42222,
  "æľīå¾Īå¤§çļĦ": 63724,
  ".Product": 91813,
  "works": 7584,
  "vinyl": 88452,
  "ĠØªÙĨÙĩØ§": 80789,
  "Ġensued": 119226,
  "å°±åĥı": 10717,
  "itia": 93085,
  "çĪ±åĲĥ": 93501,
  "975": 30809,
  "inch": 58302,
  "orio": 34016,
  "ä»¥éĢĤåºĶ": 119447,
  "æīĵå¼ĢäºĨ": 56047,
  "PCI": 115086,
  "ĠQUAL": 107150,
  "Ġhyg": 30519,
  "ĠSpons": 66871,
  "ĠHypertension": 64386,
  "æľīä¸Ģå®ļ": 42520,
  "çĻ½éħĴ": 49431,
  "Ġdesigners": 31981,
  "æĥĬæħĮ": 75549,
  "gill": 127362,
  "Ġthinly": 99818,
  "Ø§Ø¯ÙĦ": 110779,
  "Ġovers": 17139,
  "éŁŃèıľ": 78521,
  "river": 43231,
  "Ð½ÑĭÒ£": 68327,
  "Ġrecib": 70990,
  "Ġpuls": 58487,
  "Ġcrushed": 45184,
  "å½Ŀ": 60913,
  "ĠFlight": 42061,
  "ĠFrey": 104729,
  "ÑĤÐ¸Ñİ": 84559,
  "à¸łà¸²à¸©à¸²": 100663,
  "æĹ¶ä¸º": 103606,
  "å¼łæĸĩ": 99281,
  "Ġvictorious": 84503,
  "ĠMitt": 37774,
  "Ġvirgin": 52628,
  "ĠSchematic": 98867,
  "respons": 40410,
  "match": 50374,
  "Ġfungal": 47375,
  "Ġvarchar": 59011,
  "SON": 15503,
  "ĠXbox": 61769,
  "ĠÐ¾ÑĤÐºÐ»Ð¾Ð½": 112972,
  "å½±åĵįäºĨ": 50850,
  "åı¯çĩĥ": 117166,
  "XT": 53674,
  "ä»¥ä¸ĭçļĦ": 46205,
  "Ġdisinfect": 86239,
  "Ġchoir": 68349,
  "ç»ĨèıĮ": 27693,
  "ç´łåħ»": 33268,
  "èĴĻåı¤": 22978,
  "ĠBuddha": 46126,
  "æ¶Īæķ£": 68500,
  "ĠÑįÐ½ÐµÑĢÐ³Ð¸": 122316,
  "ĠUpgrade": 116477,
  "Ġseres": 102702,
  "Ġprotected": 9706,
  "ĠPut": 17324,
  "Ġunlawful": 62288,
  "ĠPerimeter": 113570,
  ".exec": 47872,
  "Ġenergetic": 46342,
  "ç¯Ĩ": 62134,
  "Ġadversary": 85049,
  "ĠÐ·ÑĥÐ±": 86696,
  "ç¬¬åįģåħŃ": 77771,
  "romes": 59726,
  "Ð¾": 355,
  "åĲİå°±": 71279,
  "Ġelectroc": 118798,
  "Ġcontinuous": 11635,
  "adamente": 53700,
  "ĠLebanon": 50627,
  "çĿ¡": 6342,
  "çĭĲçĭ¸": 48339,
  "å°Ĩè¿ĻäºĽ": 71378,
  "USER": 68284,
  "?âĢĻĊĊ": 33844,
  "ĠHMS": 82778,
  "çŃīè¡Įä¸ļ": 109007,
  "ç»ŁçŃ¹": 27089,
  "arine": 60892,
  "ĠLatino": 56545,
  "employee": 43715,
  "ĠWitch": 74660,
  "Ġ×¡×ĳ": 124044,
  "ĠScient": 30511,
  "brace": 51041,
  "ç§įç±»çļĦ": 113290,
  "Ġjuicy": 90736,
  "Ġrobe": 83707,
  "éĢīåĩº": 70542,
  "-hit": 118835,
  "åľ°çĶ¨": 126327,
  "ACHE": 102179,
  "ĠDiary": 82378,
  "Ġsystems": 3977,
  "äº¤ç»Ļ": 32316,
  "éĿ¢æĿ¿": 32711,
  "ä¹łæĥ¯äºİ": 117240,
  "áĥĻ": 111660,
  "èµ·å§ĭ": 50539,
  "orno": 30925,
  "ä¸Ģæī«": 91394,
  "åıĸåĨ³äºİ": 28001,
  "ĠNET": 61960,
  "å®£èªĵ": 82335,
  "ĠPosts": 14050,
  "Dies": 101829,
  "Ġunjust": 55514,
  "Ġenticing": 114484,
  "Ġstated": 10844,
  "Ġprofessores": 105976,
  "æĪĳä¸Ģä¸ªäºº": 106655,
  "Ġvalidating": 102047,
  "Ġdefens": 48068,
  "ĠÚ©Ø±Ø¯": 18422,
  "ĠRM": 33838,
  "÷": 182,
  "Ġalloc": 16423,
  "âħ¢": 91730,
  "ĠHigher": 25952,
  "Ġmanipul": 114312,
  ".Cross": 72439,
  "èĢħæĺ¯": 89266,
  "à®¿à®¯": 25589,
  "æħĭ": 16987,
  "Ġturt": 33812,
  "åıįåĬ¨": 68616,
  "Ġibid": 85772,
  "ĠÐ¼Ð¾Ð·": 71997,
  "ashington": 8010,
  "èĮĤ": 22207,
  "\\pi": 25426,
  "à¹Īà¸³": 94703,
  "Ġwounded": 36379,
  "aration": 17164,
  "ĠSchm": 91683,
  "Ġsuffer": 17828,
  "à¦ŀ": 52214,
  "ĠStrauss": 87397,
  "ĠStartup": 96873,
  "çº³æĸ¯": 81771,
  "ĠDict": 71937,
  "They": 8474,
  "ä¸ºå¯¼åĲĳ": 83432,
  "èµ·æŃ¥": 46755,
  "neys": 29165,
  "riÃ§Ã£o": 106355,
  "quote": 54016,
  "oteric": 105203,
  "Ġpassed": 8428,
  "æ¨Ĥ": 17041,
  "ä¾ĭåŃĲ": 20602,
  "Ġpursued": 44315,
  "æĥħç·Ĵ": 77309,
  "Ġlibertad": 106338,
  "<｜place▁holder▁no▁133｜>": 128133,
  "ativ": 11398,
  "×©": 8793,
  "å¸®æīĭ": 127833,
  "åĨł": 7876,
  "Ġlobe": 60011,
  "æ²»å¥½": 116861,
  "<｜place▁holder▁no▁498｜>": 128498,
  "Ġunwavering": 55882,
  "ç¥ŀå¥ĩ": 35419,
  "Ġyaitu": 42349,
  "å°ıæıĲçĲ´": 127761,
  "çłĶç©¶ä¸Ń": 65571,
  "Getty": 97178,
  "ĠROS": 55183,
  "aca": 18099,
  "æİĴç»ĥ": 111800,
  "çİ©ä¹Ĳ": 116662,
  "ĠRUB": 82924,
  "åĺ¶": 47435,
  "Ġconect": 101865,
  "èµĽ": 3804,
  "<｜place▁holder▁no▁95｜>": 128095,
  "422": 21605,
  "Ġconfined": 35069,
  "è¿ĺåľ¨": 14121,
  "ĠFarming": 97147,
  "æĲħ": 23703,
  "ĠSev": 79746,
  "ithub": 11156,
  "Ġec": 11009,
  "-flow": 60752,
  "ĠÏĥÏħÎ½": 66051,
  "ï¼ı": 26094,
  "Ð»Ð¸Ð¹": 42851,
  "Ġsustenance": 125447,
  "à¸ļà¸£à¸´": 40071,
  "ru": 727,
  "Ġcroissance": 109512,
  "pathic": 98299,
  "Ġnr": 50255,
  "Ġnovas": 106316,
  "åıĳå±ķåĪ°": 55624,
  "ĠLou": 9796,
  "Ġcoordinated": 43999,
  "è¿ĩå¤ļçļĦ": 71901,
  "iene": 10574,
  "Ġpeeled": 75108,
  "alion": 51878,
  "Ġpostpon": 60079,
  "åĳ¨åħ¬": 109419,
  "Ġdh": 69791,
  "æľ¬çº§": 111918,
  "Ġliquidity": 45257,
  "Ġspiritual": 13360,
  "Ġpaycheck": 121324,
  "èĦĬæŁ±": 67618,
  "ĠWhitney": 77928,
  "ãĤ°ãĥ©": 50518,
  "åĩłä¸ªäºº": 46792,
  "è¿Ļä¸Ģæ¬¡": 29558,
  "ĠArchitects": 99800,
  "otics": 40004,
  "éľĨ": 34663,
  "ĠÕ¢": 38286,
  "Ġaggravated": 92605,
  "Ġvista": 44867,
  "ĠMent": 27062,
  "Ġcrit": 3468,
  "ĠMahm": 78702,
  "ä¸¤æŃ¥": 75745,
  "ä¸ĩæĪ·": 77099,
  "Luck": 118044,
  "Ġfluid": 10527,
  "ĠIsra": 103215,
  "estre": 56712,
  "AVE": 36094,
  "Ġswitching": 24297,
  "Ġglowing": 64376,
  "Ġtali": 120220,
  "ina": 2091,
  "centage": 123556,
  "èĪ¬çļĦ": 27564,
  "åĿİåĿ·": 82846,
  "ĠTyler": 44797,
  "iesz": 35547,
  "Ġklik": 121400,
  "gin": 9290,
  "Ġepsilon": 118656,
  "å°ıèĪ¹": 121583,
  "ĠSF": 32587,
  "arrollo": 97330,
  "åĲ¯èĴĻ": 64329,
  "ĠNathan": 38983,
  "æĹ¥å¿Ĺ": 49764,
  "æ²¿çĶ¨": 112066,
  "çĥ«": 33394,
  "ç¤¾ä¼ļå·¥ä½ľ": 112336,
  "ĠCherokee": 95039,
  "ĠÑĤÐ°ÐºÐ¸Ðµ": 57902,
  "å®ŀéĻħæĵįä½ľ": 125730,
  "èĻ½çĦ¶åľ¨": 74468,
  "ĠShopify": 125354,
  "ĠÐ¿ÑĢÐµÐ´Ð¾": 69633,
  "Ġorigen": 77726,
  "Ġgifted": 49801,
  "/Getty": 123040,
  "uvian": 91258,
  "ĠÃ©tud": 122601,
  "Ġroadside": 109257,
  "çļĦåıįåºĶ": 60305,
  "Ġescalation": 90099,
  "Ð¼ÐµÐ½ÑĤÐ°": 29799,
  "Âł": 2162,
  "Ġ+(": 104335,
  "ĠComm": 2531,
  "ĠÐĵÐŀÐ¡Ð¢": 108433,
  "Ġhuis": 94809,
  "ĠØ®Ø§ÙĨÙĩ": 116511,
  "ĠVenez": 40322,
  "Ġoffensive": 26538,
  "à«ĩàª": 66889,
  "ĠLloyd": 44786,
  "à¥įà¤°à¥ĩ": 88416,
  "Ġstratum": 115203,
  "nai": 58009,
  "åĪĨæķ°çļĦ": 109825,
  "ĠprÃ¨s": 70919,
  "Ġintensities": 76380,
  "æī§è¡ĮåĬĽ": 109061,
  "ĠJesse": 57379,
  "ĠChavez": 125008,
  "éĿ¢ä¸ĬçļĦ": 74939,
  "è¿Ļå°±æĺ¯": 14176,
  "ì¹ł": 106651,
  "Production": 66377,
  "åĹ½": 31359,
  "ĠÙħØ³": 20111,
  "è·³èĪŀ": 58262,
  "ĠNeal": 86728,
  "æ±īæŃ¦å¸Ŀ": 108287,
  "-vol": 52125,
  "ERSON": 60909,
  "UITableView": 117242,
  "utterstock": 105074,
  "ä¹ĭéĸĵçļĦ": 85401,
  "æĸĩæĺİçļĦ": 65331,
  "à§įà¦Ł": 14617,
  "è²Ŀ": 49525,
  "DOI": 30668,
  "Ġ×Ĵ×ķ×¨": 119685,
  ".nextLine": 86103,
  "Ġsavings": 19692,
  "Teach": 117438,
  "Ġkunnen": 26646,
  "<｜place▁holder▁no▁252｜>": 128252,
  "Ġá¼¡": 99858,
  "Ġleisure": 44423,
  "Ġprogramma": 86776,
  "ä¸»çº¿": 76119,
  "Ġczas": 33051,
  "ĠÔ¼": 117302,
  "æĶ¾è¿ĩ": 47438,
  "Ġimper": 12251,
  "Ġlicensee": 113075,
  "Ġhydrochloride": 113407,
  "chool": 1907,
  "ä¿®æĸ¯": 126877,
  "Ġjumlah": 66489,
  "(II": 56931,
  "intage": 36240,
  "å®Īä¿¡": 116192,
  "ĠØ±ÙĤÙħ": 111849,
  "Ġgrams": 18722,
  "Ġpsyche": 91407,
  "ulado": 33966,
  "ä¸»è¦ģæĮĩ": 125702,
  "credited": 100792,
  "æĪĳç»Ļ": 107523,
  "Ġseriously": 19131,
  "æ°¸ä¹ħ": 42406,
  "åĲĳå¤ĸ": 47483,
  "³à¯į": 87466,
  "æİ¥è¿ĩ": 46450,
  "æĻļå¹´": 67443,
  "kun": 61759,
  "yster": 33396,
  "ĠCologne": 109193,
  "ĠGriff": 34352,
  "å¯¼åħ¥": 39124,
  "_create": 67783,
  "Ġunto": 29122,
  "ĠLF": 77434,
  "åħ§éĥ¨": 88786,
  "ÐµÐ¼ÑĮ": 76139,
  "Ct": 119129,
  "æľ¬ç«Ļ": 41367,
  "ACP": 82200,
  "Ġflav": 18271,
  "ĠÙĪØ°ÙĦÙĥ": 72058,
  "èĥ¡": 7146,
  "Ġstands": 13809,
  "Ġhostage": 102223,
  "iÄĻdzy": 121860,
  "ĠCentro": 49334,
  "Ġwind": 4213,
  "æ²³è¥¿": 83515,
  "Ġregret": 37421,
  "éĤ®æĶ¿ç¼ĸçłģ": 122609,
  "è¯ł": 48571,
  "Ġsweats": 111058,
  "irates": 34769,
  "Ġcolored": 29543,
  "å¥³çļĦ": 51416,
  "Ġanda": 42809,
  "ĠLev": 26844,
  "ĠDoors": 117595,
  "èľĵ": 124060,
  "å¥¹ä¹Ł": 39771,
  "ĠBacillus": 104540,
  "headers": 69562,
  "Contacts": 117635,
  "åŃ¸æľĥ": 96088,
  "iquot": 53303,
  "âģ»": 123520,
  "æĥħæĢĢ": 46501,
  "å¼ĢåıĳåĪ©çĶ¨": 92308,
  "ĠÙĨÙĬ": 104522,
  "Ġutilizando": 100227,
  "çŃīä»ĸ": 65206,
  "åĬĽçļĦ": 8153,
  "ĠíĺĪ": 114799,
  "æĿ¥ä»£æĽ¿": 127256,
  "çļĦæīĭæ®µ": 41133,
  "{itemize": 108753,
  "çļĦåĽŀçŃĶ": 75701,
  "ardt": 81335,
  "Ġjurors": 93871,
  "Ø¯Ø±Ø³Ø©": 113944,
  "ĠChop": 106258,
  "ĠJakob": 90407,
  "ĠÐłÐ°Ð·": 50150,
  "gui": 106309,
  "ï¼īï¼Ľ": 41877,
  "Ap": 27854,
  "ounter": 4918,
  "ĠMuk": 57569,
  "Ġhotspots": 124317,
  "ĠCert": 19656,
  "ĠMedi": 127959,
  "éģĻ": 75854,
  "sic": 72977,
  "Ġkids": 7286,
  "ĠOccasionally": 88056,
  "ĠÐºÑĢÐ°ÑģÐ¸": 126887,
  "Ġcongress": 36273,
  "ĠOrb": 77989,
  "Ġconsultant": 39197,
  "èĥ½æºĲ": 11662,
  "ç»´äºļ": 82836,
  "Ġperfect": 5732,
  "åįĬå¹´": 17353,
  "Ġopium": 127938,
  ".site": 123488,
  "ĠÐºÑĥ": 16096,
  "_nodes": 76737,
  "Ġpreceded": 49919,
  "Ich": 65171,
  "äºĮä½į": 86556,
  "Ġseul": 71015,
  "correct": 49541,
  "ĠÐ¡Ð¾Ð»": 105189,
  "Ġstabilize": 63436,
  "ĠfÃ¼nf": 93410,
  "ä¸įçĽ¸åĲĮ": 61554,
  "alie": 75073,
  "æ¸´æľĽ": 32849,
  "å¯ĨåĪĩ": 18968,
  "Ġrainforest": 64897,
  "Ġostat": 70599,
  "Ġchampagne": 96746,
  "å¸ĪçļĦ": 60529,
  "¤×¨×": 34562,
  "vr": 46053,
  "ç¼ºçĤ¹": 25323,
  "Ġlicenses": 48828,
  "Mel": 38948,
  "Ġcomputation": 29285,
  "ç¬¬åħ«ç«ł": 81680,
  "ĠTraining": 17890,
  "Ġdissolving": 109494,
  "ĠÐ³Ð¾Ð´": 32557,
  "PV": 22492,
  "Ð°Ð²": 69990,
  "ĠÙĪØ¹ÙĦÙī": 105503,
  ".ch": 28501,
  "èı²åĪ©": 104915,
  "æ²»çĻĤ": 38249,
  "ç¶ł": 37757,
  "ÐµÐ²": 16138,
  "Ġà¦¸à¦¾à¦°": 124143,
  "Ġalma": 93713,
  "æĺ§": 40364,
  "ĠObl": 51142,
  "SPJ": 61664,
  "ĠÐ¾ÑĩÐµÑĢÐµÐ´ÑĮ": 87612,
  "æİı": 30260,
  "react": 13266,
  "ĠTutorial": 49562,
  "æīĢä»¥æĪĳ": 41851,
  "ĠAlignment": 92473,
  "ĠEqual": 35129,
  "ãĤ«ãĥ«": 100485,
  "ĠReliability": 82728,
  "ä¾Ľåħ»": 82834,
  "Ã¡z": 18706,
  "bersecurity": 36188,
  "ifikasi": 83373,
  "ĠEstablished": 108039,
  "éĤ®æĶ¿": 47259,
  "Ø§Ø·": 11331,
  "å·´å°Ķ": 90020,
  "Nj": 93074,
  "æĪĳå±Ģ": 104235,
  "Ġselv": 87363,
  "Ġaligning": 73390,
  "åľ¨ä»Ĭå¤©": 108468,
  "Ġparticipar": 110166,
  "ĠBRI": 91373,
  "à¦¨à§įà¦¨": 68286,
  "lyss": 71077,
  "äºĮåįģå¹´": 70280,
  "Ġpulse": 21903,
  "Ġnodding": 99214,
  "ĠSchae": 119533,
  "åŃĿé¡º": 101861,
  "Ġcriticized": 46529,
  "Ġappre": 43237,
  "Ġshoulder": 16884,
  "å¤ĸåķĨæĬķèµĦ": 96508,
  "GRAM": 55463,
  "Ġsuspects": 56138,
  "åħļé£İ": 54373,
  "ìļĶ": 16845,
  "à¸Ľà¸£à¸°à¸ģà¸Ńà¸ļ": 62758,
  "Ã¢n": 17826,
  "æĿ¥è¯´": 5841,
  "Ġandroid": 15838,
  "Ġmigraine": 73581,
  "ÙģØ¹": 60551,
  "ĠEach": 8829,
  "åİĨåı²": 5163,
  "ĠâĢ§": 88927,
  "ä¸»è¦ģçĶ¨äºİ": 53825,
  "yms": 71018,
  "kil": 27177,
  "eties": 13634,
  "lec": 68820,
  "ĠÐ¿Ð¾ÑģÑĤÑĢÐ¾": 57224,
  "çĦ¦": 8522,
  "è¼ī": 28535,
  "Ġë¦¬íı¬íĬ¸": 122365,
  "åĽºæľī": 74516,
  "è¾Ĩè½¦": 70744,
  "<｜place▁holder▁no▁2｜>": 128002,
  "ĠThem": 60666,
  "Ġstoria": 55086,
  "Ð±ÐµÑĢ": 67356,
  "ĠHarl": 124798,
  "ĠKier": 108546,
  "àµįà´": 11886,
  "è´¸æĺĵ": 12346,
  "opausal": 73775,
  "ä¹Ŀå¹´": 52718,
  "aka": 10118,
  "åĪĨçº§": 51387,
  "Atlantic": 88144,
  "ela": 7705,
  ".My": 108414,
  "Ġga": 35051,
  "ĠAdoption": 85516,
  "zenÃŃ": 63039,
  "Za": 88230,
  "åĲĦ": 1565,
  "æĶ¯æı´": 31091,
  "noÅĽci": 24566,
  "iÄĻ": 16294,
  "Ġautonomous": 35155,
  "ĠGCF": 39686,
  "unting": 26079,
  "å»ºçŃĳ": 6786,
  ".rel": 92945,
  "çļĦåŁºæľ¬åİŁåĪĻ": 111232,
  "iz": 571,
  "ĠManagement": 7967,
  "ÙĪÛĮØ¯": 69497,
  "ours": 2854,
  "Ġalong": 3758,
  "çĬ¹å¤ª": 53651,
  "rs": 8492,
  "å·¥ä¿¡": 89384,
  "Ġbrochure": 101424,
  "Ġdiagram": 11218,
  "csrf": 127137,
  "æŁ±åŃĲ": 92669,
  ".youtube": 52345,
  "çīĽä»Ķ": 67401,
  "IQUE": 88552,
  "Ġforms": 6823,
  "ĠÑĤÐ¾ÑĩÐ½Ð¾": 116151,
  "LED": 29941,
  "Ġrefreshing": 45827,
  "downarrow": 127944,
  "ĠHoch": 49343,
  ".Supp": 96639,
  "Finance": 96320,
  "LAS": 91362,
  "Ġsacks": 98080,
  "ĠMini": 41131,
  "äºĨè¿ĩåİ»": 41142,
  "æĵįå¿ĥ": 95514,
  "Ġcompositions": 37815,
  "(tree": 69090,
  "Ġcomand": 123154,
  "åĮĹæĸ¹": 28947,
  "Admin": 32796,
  "Ġirritated": 93126,
  "à¹Ģà¸ģà¸µà¹Īà¸¢à¸§à¸Ĥà¹īà¸Ńà¸ĩ": 116586,
  "è§ĦåĪĻçļĦ": 76581,
  "Nombre": 87412,
  "å±±æĿĳ": 81837,
  ".post": 38277,
  "Ġexecutes": 74638,
  "å¯¹äººç±»": 118731,
  "ãĤĵãģ©": 92105,
  "ĠNutrients": 71196,
  "ropathy": 125628,
  "ÙĥÙħØ§": 121066,
  "Ġtechnical": 10021,
  ":F": 87993,
  "Ġorig": 2995,
  "Ġzodiac": 108345,
  "Ġect": 58613,
  "èĻĳ": 5812,
  "ĠtÃ©cnicas": 81337,
  "Ġbud": 6874,
  "Ð²Ð°ÑĤÑĮÑģÑı": 52528,
  "ĠInfant": 44974,
  "ÙĪØ³": 11312,
  "Ġobsc": 27699,
  "Ġnaw": 48909,
  "Ġimpede": 91989,
  "Ġthank": 11390,
  "çĻ¾æĹ¥": 85427,
  "åĴĮä¸ī": 92571,
  "features": 69437,
  "Ãĺ": 45528,
  "æľĢé«ĺæ³ķéĻ¢": 113596,
  "Ġbrowsing": 57399,
  "Ġtattoos": 101281,
  "åĲĳå¤§å®¶": 95384,
  "udo": 14255,
  "æĹ©": 3142,
  "ĠØ§ÙĦØ¯Ùħ": 55237,
  "Ġvascul": 86212,
  "Ġgarden": 12597,
  "å¤©æ°Ķ": 16652,
  "è½¬æį¢": 14781,
  "Ġreson": 15407,
  "à¸¥à¸±à¸ģà¸©": 71106,
  "Ġgenealog": 92542,
  "aried": 116046,
  "å¤´çĹĽ": 39911,
  "Ġincid": 121876,
  "06": 3398,
  "Ġemblem": 79980,
  "æ¯Ľç¬Ķ": 123857,
  "ĠÐ±Ð¾Ð»": 74716,
  "à¦¾à¦ļ": 43264,
  "ĠPrz": 83232,
  "Ġparasit": 85530,
  "å®¹ç§¯": 64060,
  "æ¶µ": 13210,
  "944": 30617,
  "Ġtuples": 113625,
  "èµĲ": 27311,
  ")import": 121421,
  "Ġ×Ľ×Ĳ×©×¨": 87177,
  "Ġperformers": 54673,
  "ĠÐºÐ»Ð°ÑģÑģÐ¸": 73686,
  "Ġnpm": 92112,
  "ĠMarket": 8493,
  "æĹ¶åºĶ": 50438,
  "Ġstating": 33755,
  "ç®¡": 1321,
  "à©±à¨": 91255,
  "aide": 115907,
  "æłı": 12899,
  "oad": 1989,
  "æŀľ": 1236,
  "rums": 93786,
  "Ġcamin": 64714,
  "à¸§à¸´à¸Ĺà¸¢à¸²à¸¨à¸²à¸ªà¸ķà¸£à¹Į": 108405,
  "Ġzahl": 96902,
  "aya": 10237,
  "opolymer": 115075,
  "çłĶåĪ¶": 42525,
  "Ġaffirmed": 58716,
  "Ġconducive": 68295,
  "å¸Ĳç¯·": 67736,
  "orsk": 43977,
  "ĠØ§Ø«": 95008,
  "nÃ½m": 85099,
  "åĩºè´§": 84433,
  "ĠForever": 94555,
  "é¢Ħä¹ł": 105085,
  "lingen": 51801,
  "Ġphys": 3371,
  "itude": 4986,
  "æĿ¥è¯´æĺ¯": 92410,
  "Enter": 13228,
  "å¤§å®¶éĥ½çŁ¥éģĵ": 83951,
  "Ø¨ÙĤ": 60255,
  "éĹ®å¥¹": 88072,
  "Ġescola": 79446,
  "qz": 102697,
  "Ġmeals": 22367,
  "ĠÐ½Ð°Ð·Ð²Ð°Ð½Ð¸Ðµ": 96899,
  "Ġsculpture": 48920,
  "Ġsidewalks": 120536,
  "ĠÙħØ¶": 86859,
  "å¥¹å·²ç»ı": 78304,
  "å¿«æ¨Ĥ": 77837,
  "çĽ¸è¿ŀ": 40098,
  "ĠCosts": 50008,
  "åħ¼": 10727,
  "ÐºÑĢÑĭ": 27080,
  "Ġit": 436,
  "Ġmailed": 99065,
  "ĠÙģ": 2194,
  "ynth": 64152,
  "à¯ĩà®°": 101561,
  "Cert": 52568,
  "Ġbew": 35181,
  "Ġconverting": 28452,
  "ĠCornwall": 79667,
  "å¹³è¡ĮåĽĽè¾¹å½¢": 84888,
  "Ġsacrament": 116171,
  "ĠDestroy": 83208,
  "å·´": 4544,
  "Ġfulfilling": 42176,
  "ĠElm": 97133,
  "ĠLeonardo": 65136,
  "ä¹Łä¸įå¿ħ": 112916,
  "lijke": 80876,
  "Ġphilosophers": 50994,
  "éĽĨä½ĵçļĦ": 110185,
  "ĠëĦĺ": 114159,
  "Ġalveolar": 84549,
  "èľ¿èľĴ": 104014,
  "ĠLoh": 102549,
  "ĠÐºÐ¾ÑĺÐµ": 19959,
  "ĠEspÃŃ": 123312,
  "çļĦçī¹": 49342,
  "psk": 88267,
  "ĠLeon": 21396,
  "for": 2251,
  "Ġcaptain": 28049,
  "try": 26976,
  "Ġguardians": 74007,
  "àµģà´¨àµįà´¨": 109804,
  "ĠLump": 90584,
  "å®ģ": 5557,
  "çĥŁèĬ±": 56187,
  "åħļä¸Ńå¤®": 40381,
  "spoken": 71772,
  "ĠSyll": 69920,
  "ousseau": 74251,
  "æĪĲèĻ«": 121147,
  "Ġfunct": 80991,
  "æŁĵèī²": 34737,
  "Ġconsegu": 48730,
  "ĠfÅĳ": 67452,
  "æ¸¯": 6493,
  "âĳ¢": 21686,
  "ĠBoys": 43998,
  "Ð¾Ð»ÑĮÐºÐ¾": 12293,
  "ĠcÅĵur": 97415,
  "Ġwreck": 51009,
  "oderm": 51626,
  "å°±æĿ¥": 62649,
  "()}": 113799,
  "Ġgenus": 26059,
  "compile": 95201,
  "ĠÑĢÑı": 62696,
  "ĠBing": 65747,
  "ĠCBS": 54113,
  "_true": 99709,
  "ĠAt": 3256,
  "ĠHousehold": 70346,
  "Ġexplanations": 31714,
  "uits": 15331,
  "embang": 73449,
  "è²«": 69407,
  "Äģn": 32097,
  "every": 37684,
  "Ġbitterness": 82193,
  "opedic": 87338,
  "æĮĤ": 8950,
  "ä¸»è¦ģéĢļè¿ĩ": 114539,
  "ĠFluid": 51818,
  "Ġtopology": 45459,
  "ĠChao": 117998,
  "å¢ŀéķ·": 80212,
  "Ġmakanan": 53895,
  "å¼Ĭ": 27830,
  "åĲĮæ¯Ķå¢ŀéķ¿": 34188,
  "ãĤ·": 13225,
  "ĠEquipment": 39098,
  "Å¡a": 116280,
  "Ġles": 2840,
  "Ġinconsist": 85213,
  "æŃ£æĸĩ": 33292,
  "autres": 58046,
  "Cosine": 47761,
  "amous": 27604,
  "ĠBorne": 109089,
  "ÙİÙĨ": 39139,
  "Ġï¿½ï¿½ï¿½ï¿½": 104716,
  "ĠMon": 4649,
  "ĠTomatoes": 112264,
  "ĠHuber": 118383,
  "ĠMugh": 107269,
  "ĠEncyclop": 77155,
  "ĠDemocrats": 30920,
  "çĶ°åĽŃ": 65760,
  "iOS": 93280,
  "Ġsleep": 7053,
  "å°±è®©": 66905,
  "ĠSupplier": 99591,
  "ĠDiversity": 41984,
  "Ġsterling": 120790,
  "leo": 88968,
  "[y": 45989,
  "ĠPrem": 17338,
  "Ġ'\\": 28029,
  "ĠWarszawa": 107059,
  ".context": 52786,
  "Optim": 80655,
  "éĸ¢éĢ£": 105473,
  "ĠÙĦØ£ÙĨÙĩ": 123840,
  ".Domain": 98068,
  "à¸Ķà¹ī": 7990,
  "Oper": 17477,
  "å°ĨæĿ¥çļĦ": 105284,
  "ĠØ¹ÙħÙĦÚ©Ø±Ø¯": 124345,
  "ĠBeam": 83038,
  "Ġtheme": 12769,
  "åĺ´": 6720,
  "letic": 28637,
  "é£ŀèĪŀ": 96267,
  "ä»¥ä¸ĭåĩłä¸ª": 48589,
  "ä¹Łæľª": 95410,
  "ëĦ": 29934,
  "bok": 83599,
  "ä¸ĸä¸Ĭ": 47521,
  "ĠNoble": 63875,
  "ndan": 72696,
  "quez": 47719,
  "å¤§åŃĹ": 96101,
  "),ĊĊ": 33963,
  "Ø§ØŃÙĬØ©": 108941,
  "éĢĥéģ¿": 48885,
  "Ġtests": 8499,
  "äº¤æ¶ī": 121895,
  "ä¸īå¹´çº§": 62171,
  "æ½ĩ": 34863,
  "cis": 9873,
  "-invasive": 83138,
  "æ»ĳåĬ¨": 45428,
  "åħ¬éĸĭ": 62391,
  "_HOST": 121438,
  "ĠActiveRecord": 105879,
  "ä¿¡ä»»": 20275,
  "ä¸ºæł¸å¿ĥçļĦ": 81607,
  "åĬłæĭ¿": 29060,
  "Ġpercutaneous": 117573,
  "jarah": 78550,
  "ç¬¬äºĮèĬĤ": 44733,
  "ï¼®": 118908,
  "<｜place▁holder▁no▁200｜>": 128200,
  "ĠÐ²ÐµÑģÑĮ": 73513,
  "<｜place▁holder▁no▁197｜>": 128197,
  "---|---": 97121,
  "now": 949,
  "Ġpuppet": 97642,
  "çªĴæģ¯": 75841,
  "Marie": 121529,
  "æī¾äºĨä¸ª": 126232,
  "Ġbarn": 38958,
  "åĪ«": 1725,
  "Ġgenerates": 28192,
  "ĠÐ°Ð½Ð°Ð»Ð¸Ð·Ð°": 88003,
  "ĠÐ¤ÑĢÐ°Ð½": 63150,
  "AMES": 77549,
  "rill": 79985,
  "Ġnobody": 29780,
  "ĠTos": 96178,
  "no": 3567,
  "Ġorg": 7312,
  "éĢļæ°Ķ": 83601,
  "Ġrealms": 76364,
  "ungk": 112716,
  "èĦļè·Ł": 124641,
  "Ġcapacitive": 123676,
  "ognitive": 28143,
  "-solid": 103019,
  "ç¾¤": 3112,
  "à®¾à®®": 103253,
  "______": 13837,
  "ĠÐ¿Ð¸ÑĪÐµ": 118863,
  "NotNull": 64924,
  "æĭīä¼¸": 56436,
  ".D": 5249,
  "åıĳå¸ĥä¼ļ": 63977,
  "ĠÑģÐ¾Ð²Ð¾ÐºÑĥÐ¿": 124435,
  "ä¸įåĲĪ": 47781,
  "Ġplumage": 126381,
  "ĠØ¹Ø¯Ø©": 108716,
  "Ĺ×§": 42835,
  "ropl": 80897,
  "ç«ĭä½ĵ": 36515,
  "ÐºÐ»Ð°Ð´": 67545,
  "Sy": 55191,
  "éĴ¢ç®¡": 69966,
  "Ġexceptionally": 60409,
  "à¸Ĺà¸µà¹Īà¹Ħà¸¡à¹Ī": 110532,
  "à¸£à¹īà¸Ńà¸¢": 82726,
  "Probability": 108582,
  "Ġjudge": 14839,
  "Israeli": 123127,
  "æĺİæĺİæĺ¯": 118883,
  "ĠSteele": 98095,
  "Ġshoots": 57158,
  "¯à¦¼": 6200,
  "è¯´ä¸į": 22256,
  "è®¤å®ļçļĦ": 124510,
  "Ġbakery": 95042,
  "yth": 5800,
  "Ġcardboard": 67591,
  "Ġà¸¢": 63774,
  "Ġimpacts": 16018,
  "oplast": 40073,
  "Ġidealism": 125327,
  "ÑİÑīÐ¸": 12785,
  "Ġrestart": 52802,
  "Ġanecdotes": 101586,
  "}\\)": 2913,
  "Ø§Ú¯Ø±": 106866,
  "Ġannex": 53793,
  "AMA": 39679,
  "èĩªåĬ¨": 9627,
  "xo": 71519,
  "é»ĳè¡£": 54756,
  "Ġcombustion": 32880,
  "çļĦä¸ĭ": 30973,
  "Ġfeedstock": 122719,
  "Ġwoll": 107237,
  "çŃ¾åŃĹ": 45493,
  "edip": 100732,
  "æľįåĬ¡è´¨éĩı": 75514,
  "å·¥ç¨ĭè´¨éĩı": 86264,
  "ĠDevils": 94596,
  "Ġì¡´ìŀ¬": 91299,
  "æºľ": 23700,
  "ĠEddy": 116021,
  "Ġcipher": 61462,
  "ĠÐ½Ðµ": 3000,
  "Ġmerch": 30752,
  "ĠTid": 88309,
  ".xlabel": 116610,
  "ĠÐ½Ð¾Ð²": 21384,
  "Ġseaw": 69818,
  "Kirk": 125796,
  "ĠØ¨Ø§ÙĦÙĨ": 65961,
  "Ġpolys": 50722,
  "Ġestudi": 91745,
  "letons": 82279,
  "ĠBax": 73801,
  "Ġwander": 54534,
  "à¸²à¸ļ": 50504,
  "(set": 56351,
  "Ġfond": 17926,
  "amming": 34842,
  "ä¸»æķĻ": 62354,
  "716": 27853,
  "-current": 86550,
  "æŃ¦éŃĤ": 118116,
  "olor": 12171,
  "ĠÐ½Ð¾Ð²ÑĭÐµ": 96013,
  "éĺ´èĮİ": 118092,
  "ĠMackenzie": 99410,
  "à¹Ģà¸Ľà¸¥à¸µà¹Īà¸¢à¸Ļ": 57758,
  "ÃŃnio": 113893,
  "Ġhousing": 12048,
  "æ©Łæ¢°": 75414,
  "ĠElder": 50082,
  "ggy": 114537,
  "è¾ĥå¥½çļĦ": 42189,
  "×ķ×ķ×ª": 86198,
  "789": 25744,
  "à¤¿à¤¨": 42180,
  "ä¸įé«ĺ": 36160,
  "Ġdaddy": 98220,
  "æ·¡æ¼ł": 108625,
  "æıª": 59509,
  "Proxy": 58270,
  "çļĦåħ±åĲĮ": 102755,
  "çļĦåį°è±¡": 111950,
  "ICES": 52172,
  "Ġkategori": 126177,
  "ĠÙĩÛĮ": 61827,
  "Ġafforded": 64149,
  "åı¯ä¾Ľ": 49754,
  "Ġmicrometers": 72215,
  "ĠÐ²Ð¾Ð·Ð¼Ð¾Ð¶Ð½Ð¾": 83782,
  "/f": 11686,
  "Ġpoorest": 82494,
  "Ġwhip": 71779,
  "IW": 109344,
  "_response": 64469,
  "å®¤çļĦ": 53387,
  "Ġgrafts": 119233,
  "ĠÅ¡est": 126263,
  "Ð²Ð°ÑĤÐ¸": 88558,
  "Toy": 126366,
  "Ġprzez": 23579,
  "Ġcer": 12084,
  "HashMap": 79451,
  "áĢºáĤ": 106016,
  "Ġcurrently": 7491,
  "ç¦ħå¸Ī": 105741,
  "å¹³": 1352,
  "Ð¼Ð°ÑĤ": 52068,
  "á»ģ": 28768,
  "åĪĨä¹ĭ": 67561,
  "åĲĥèµ·æĿ¥": 94725,
  "Ġlane": 39315,
  "Ġpericard": 127170,
  "×¨": 2285,
  "Ġpref": 35204,
  "ĠÑģÐ¾ÑĢ": 57626,
  "Ð´Ð°Ð²": 98897,
  "ĠKrieg": 69025,
  "è¿ĩåİ»äºĨ": 34667,
  "Ġpedagogical": 71050,
  "ĠÎµÎ»Î»Î·Î½": 51348,
  "è®Ĭ": 11403,
  "æĺ¨æĻļ": 41983,
  "Ġbesser": 90127,
  "420": 16046,
  "ä¹ħäºĨ": 47790,
  "ĠØ´ÙĩØ±": 42461,
  "è¥¿æ¸¸è®°": 112359,
  "Ġrights": 5643,
  "Ġowing": 41666,
  "ĠSergei": 126449,
  "ç«¥åŃĲ": 104094,
  "/resources": 119027,
  "orpor": 32564,
  "Ġsuccinct": 98707,
  "Ġdetermination": 15394,
  "ä¹ĭä¸º": 30976,
  "ĠBras": 22262,
  "Ġstyle": 5392,
  "Royal": 78384,
  "ultura": 46860,
  "æ±Łè¥¿": 25630,
  "à¤¤": 8422,
  "Ġdeposited": 36213,
  "à¸¸à¸©à¸¢à¹Į": 100289,
  "Ġwitch": 47370,
  "ING": 4951,
  "henyl": 38611,
  "fait": 78068,
  "æĢ§çļĦ": 5776,
  "ografi": 72278,
  "ä¹Łä¸įè¡Į": 124227,
  "ismos": 80577,
  "Ġfancy": 36946,
  "çĦ¶çļĦ": 42819,
  "ĠØŃØ±Ú©Øª": 118614,
  "Ġdownturn": 91886,
  "Ġescrita": 123773,
  "ĠØ§ÙĦØ¸": 56315,
  "Ġprovincial": 38299,
  "zum": 110038,
  "ä¹łæĥ¯": 10294,
  "ĠTheology": 69149,
  "ĠEndangered": 102664,
  "æĮ¯": 7939,
  "ODIS": 56667,
  "ĠgestiÃ³n": 106876,
  "å¢ħ": 35590,
  "æ¬£æ¬£": 123598,
  "tico": 21492,
  "Ġmuff": 53108,
  "Ġkilogram": 38723,
  "finance": 114184,
  "Ġfeet": 6302,
  "åĲŀåĴ½": 107583,
  "Ġtribun": 112872,
  "-generated": 38762,
  "\"My": 96689,
  "510": 19037,
  "Ġpenetrate": 60641,
  "éĹĸ": 117191,
  "292": 18307,
  "åħ¨ç¤¾ä¼ļ": 68414,
  "åŃ£": 4955,
  "Î¯Î±ÏĤ": 31971,
  "posites": 64358,
  "ĠuseEffect": 46812,
  "à¸ŀà¸±à¸Ĵà¸Ļ": 46672,
  "ä½łä¸įçĶ¨": 118378,
  "Ġotherwise": 9694,
  "DataType": 101487,
  "Ġodn": 122068,
  "ĠÐ±Ð¾Ð»ÑĮÑĪÐµ": 31231,
  "asha": 37478,
  "à®¨": 101220,
  "Ġultra": 36581,
  "ä¾Ŀæ³ķ": 14223,
  "engl": 51105,
  "çĬ¯éĶĻ": 124809,
  "(state": 55952,
  "å¶º": 118477,
  "Ġberb": 71042,
  "ï¼Łï¼Ł": 42599,
  "ä»ĸè¦ģ": 41553,
  "Ġregisters": 47595,
  "éĿŀå¸¸ãģ«": 110208,
  "emm": 109053,
  "åı¯ä»¥éĢļè¿ĩ": 23450,
  "ÎŁ": 37008,
  "Consulta": 50989,
  "Ġmajority": 9944,
  "Ġmanagerial": 61524,
  "Ġslog": 92587,
  "ĠÑĢÐµÐºÐ¾Ð¼ÐµÐ½Ð´Ð°": 106268,
  "æķ²éĹ¨": 70714,
  "Ġunmatched": 118291,
  "Ġbiking": 96535,
  "ĠExtended": 63988,
  "èĮ«": 21019,
  "à¸µà¹ī": 15457,
  "ĠBeck": 29776,
  "ĠFriends": 29465,
  "ĠUITableView": 91298,
  "ï¼īâĢľ": 101149,
  "Ġpitcher": 59715,
  "ĠImmediately": 78081,
  "Ij": 110250,
  "COM": 42887,
  "ä¼¯æł¼": 104641,
  "Ġhypertrophy": 107351,
  "æģ°åĪ°": 99304,
  "Uh": 67686,
  "Ġ^": 8869,
  "acock": 83567,
  "Ġclearer": 50282,
  "çĿ¡è§ī": 24948,
  "Ġpointless": 98264,
  "ĠMarie": 30276,
  "âŁ": 32756,
  "èĲ½åĪ°å®ŀå¤Ħ": 87399,
  "é»¯": 60520,
  "ä¸ĵåĪ©æĿĥ": 78669,
  "è¡£è¢ĸ": 106196,
  "åħ¨å±Ģ": 34192,
  "×¨×Ĺ": 51893,
  "åĬ¨è½¦": 124594,
  "ĠÐ²Ð¸Ð´Ðµ": 35349,
  "ÑĻÐµ": 83554,
  "ä¹Łæ²¡": 14236,
  "}},Ċ": 90182,
  "çļĦåĽ½å®¶": 36395,
  "lest": 68272,
  "<｜place▁holder▁no▁352｜>": 128352,
  "Phone": 15455,
  "wo": 1015,
  "ipeg": 93300,
  "ĠÐ´Ð¸Ñģ": 71220,
  "éĥ¨ä»½": 80081,
  "dition": 2278,
  "ĠClouds": 109312,
  "Ġcraving": 81538,
  "04": 3663,
  "-us": 66219,
  "edy": 11083,
  ".Status": 58843,
  "Ġacquisition": 18699,
  "Ġprzyczyn": 100297,
  "çļĦéĩįè¦ģ": 8633,
  "ĠCoul": 58485,
  "azard": 66448,
  "ĠCU": 59275,
  "ĠÑĥÐ¼ÐµÑĢ": 115798,
  "âĪĴ(": 101638,
  "ĠCors": 95882,
  "åħŃä¸ª": 40815,
  "æ³ķåħ¸": 88856,
  "ĠØ§ÙĦÙĨØ¬Ùħ": 84680,
  "`,`": 58765,
  "ĠAlber": 30535,
  "ç¯": 3619,
  "Ã°": 22437,
  "Ġunknown": 13026,
  "Ġqueen": 35853,
  "Ġphylogen": 48180,
  "ĠFinch": 105371,
  "otype": 12292,
  "ç¤¾ä¼ļçļĦ": 19769,
  "underline": 47706,
  "ĠÙħØ§ÙĦ": 95222,
  "åĮ»åĬ¡": 49121,
  "æĪ¿ä¸Ń": 122457,
  "åĪģ": 70171,
  "ĠSphere": 53160,
  "vest": 5975,
  "åį³åľ¨": 62003,
  "(bytes": 118483,
  "BUT": 119400,
  "ĠRB": 44937,
  "Ġplotted": 52891,
  "inguishable": 97371,
  "ç¼ĿåĲĪ": 83937,
  "ÙĪØ±Øª": 80016,
  "Ø¨ÙĪÙĦ": 124612,
  "åįĬè¾¹": 125677,
  "erick": 89303,
  "Ð¾Ð»Ð¾Ð³Ð¸Ð¸": 49932,
  "apit": 19091,
  "Ġshowdown": 124866,
  "Ġpredictive": 32968,
  "é¢Ħè§Ī": 83672,
  "åģıæĮ¯": 118053,
  "ĠÙĪÙĩÙĬ": 52624,
  "hello": 33310,
  "æĸ½": 2444,
  "×Ļ×Ĵ": 40305,
  "æķ°æį®æĺ¾ç¤º": 47841,
  "ĠPyr": 127535,
  "ĠBiome": 122684,
  "èĥ½æĬĬ": 60904,
  "ä»¥ä¸ĭæĺ¯": 60907,
  "employed": 52202,
  "African": 81063,
  "Õ«Õ": 18500,
  "itus": 20353,
  "ict": 1435,
  "ĠÑĦÑĥÐ½Ð´Ð°": 95055,
  "ÛĮÙħÛĮ": 71290,
  "_board": 97205,
  "-team": 90092,
  "Ġpeanut": 56613,
  "Ġboasts": 51865,
  "_y": 21469,
  "ritten": 16545,
  "ĠMVC": 96365,
  "ĠDr": 4865,
  "Introdu": 79938,
  "ĠKee": 125799,
  ".os": 71542,
  "åİĭä¸ĭ": 117252,
  "äººä¸İèĩªçĦ¶": 121179,
  "å¥ı": 11453,
  "Ġterminal": 16170,
  "ĠDawson": 75840,
  "ãĥĥãĥĹ": 43492,
  "Ġhosp": 19119,
  "Ġsign": 1520,
  "Ø«Ø§Ø±": 63099,
  "à±Ī": 80506,
  "ĠBoyle": 88745,
  "Ġcavern": 85923,
  "çļĦå¥³åŃĲ": 87572,
  "Ġwohl": 91644,
  "Ġmiles": 5157,
  "Ġzuten": 69335,
  "ococci": 121909,
  "åĢ¦": 34636,
  "çļĦå¾Ī": 45922,
  "Ø§ÙĪÛĮ": 103172,
  "è©¢åķı": 99168,
  "AY": 13836,
  "ĠArctic": 35249,
  "ĠSSH": 104968,
  "Universal": 94664,
  "Ġpanas": 124895,
  "ĠjÃ¤l": 95370,
  "æİ¢è®¨": 22379,
  "Ġstripping": 101893,
  "ĠHalf": 35418,
  "åĳ¨åĽ´çļĦäºº": 124543,
  "ĠhashCode": 122164,
  "raded": 84380,
  "ØºØ±": 40434,
  "æ½ľå¿ĥ": 124323,
  "Ġdomestic": 12541,
  "Ġconforme": 92221,
  "ĠÎ±ÏĢÎ¿": 55384,
  "LLOW": 81095,
  "ĠÙĪÙĦØ§": 40442,
  "ĠAlgorithm": 38313,
  "Park": 53783,
  "Ġunreliable": 78122,
  "Sp": 9223,
  "Ġexisted": 26463,
  "adul": 66004,
  "è·¯å¾Ħ": 19476,
  "èģĶåĲĪä¼ļ": 57089,
  "âĦ": 10419,
  "Ġcorriente": 125433,
  "inflammatory": 95434,
  "Ġeconomical": 64483,
  "ĠLibr": 45238,
  "ounder": 46616,
  "Ġcooks": 94501,
  "åĩºäºİ": 30326,
  "å¥½ä¹ħ": 57493,
  "à¸¡à¸²à¸ķ": 73109,
  "neq": 42492,
  "Writing": 46837,
  "Ġpatriotism": 101603,
  "<｜place▁holder▁no▁263｜>": 128263,
  "nehmer": 85855,
  "ket": 12384,
  "æ¦»": 60809,
  "Accordingly": 102789,
  "Ġ=ĊĊ": 24300,
  "áŁģ": 116907,
  "çļĦéĿ¢": 28560,
  "à¦¹à¦¾à¦°": 55629,
  "ĠLima": 61880,
  "ä¿ĿæĮģä¸įåıĺ": 107291,
  "-items": 41779,
  "<｜place▁holder▁no▁668｜>": 128668,
  "ĠIndustry": 20936,
  "æĽ´è¿Ľä¸ĢæŃ¥": 103427,
  "Ġrugged": 69657,
  "stitut": 65401,
  "Ġpostnatal": 110682,
  "professional": 76225,
  "à§±": 102175,
  "å¤§å¨ĺ": 116579,
  "par": 1789,
  "ramid": 28281,
  "Ġdisclose": 45051,
  "Ġinvariant": 55193,
  "Ġribosomal": 125738,
  "Ġpared": 118695,
  "ĠTam": 27576,
  "Ġlekar": 115595,
  "etrics": 42865,
  "Favorite": 102940,
  "__": 848,
  "å¦¹": 7754,
  "Ġ#[": 78461,
  "çĽ¸æīĭ": 125202,
  "Ġhospitalization": 67942,
  "çŁĽçĽ¾": 12790,
  "uhkan": 67786,
  "Ġsessions": 17819,
  "çĭłçĭł": 29115,
  "-fed": 90338,
  "ory": 869,
  "Ġconsortium": 77547,
  "ĠThousand": 19501,
  "ĠSometimes": 18668,
  "çĶ»çĶ»": 75964,
  "è°ĪåĪ°": 47251,
  "ä¸įå¤ª": 17846,
  "åºĶçĶ¨é¢ĺ": 121545,
  "Ġaccrued": 91305,
  "Ġdinosaurs": 69052,
  "çĽ¸åıįçļĦ": 105228,
  "æķ°åŃ¦å®¶": 122190,
  "ĠSunn": 124658,
  "-page": 39304,
  "ĠdÃ©l": 95083,
  "Ð²ÐµÐ»Ð¸": 103573,
  "ĠUTF": 99076,
  "å¤§åŁİå¸Ĥ": 73763,
  "çıı": 106856,
  "å½ĵå±Ģ": 48290,
  "Ø§ÙĨØ²ÙĬØ§ØŃ": 82190,
  "ĠHopefully": 59251,
  "ĠLid": 89478,
  "Ġcyl": 17634,
  "Ġcirculating": 44728,
  "Ġfixed": 9305,
  "ä¸»ä¹īåĴĮ": 96106,
  "Ġshortcuts": 102810,
  "ĠMB": 20181,
  "æ¨ªå¹ħ": 119916,
  "VIRONMENT": 112929,
  "batis": 106064,
  "RM": 47351,
  "ĠSingle": 24266,
  "Ġdagli": 101531,
  "chains": 117995,
  "ĠSerie": 87481,
  "=b": 48171,
  "](../../": 75550,
  "illet": 35917,
  "Ġstor": 40914,
  "æĪĴ": 14684,
  "ìłĳ": 76770,
  "å½ĵçľŁ": 84546,
  "Ġdelir": 94256,
  "æ·±åº¦èŀįåĲĪ": 115826,
  "(!": 24102,
  "halten": 33222,
  "RT": 23085,
  "à¸ªà¸¸à¸Ĥ": 57919,
  "×Ļ×": 1307,
  "CED": 112952,
  "ĠPersia": 92186,
  "Would": 43332,
  "<｜place▁holder▁no▁787｜>": 128787,
  "Ġdeformation": 37411,
  "åĹħ": 50822,
  "´Ī": 30980,
  "à¹ĥà¸Ķ": 71053,
  "æ¤ħä¸Ĭ": 87630,
  "Ġsubstracted": 51868,
  "Ġmanipulation": 34051,
  "Ġevaporated": 101621,
  "Ġrelev": 6699,
  "Ġrevolutionized": 76146,
  "à¸Ħà¸£": 14175,
  "chedule": 80731,
  "please": 59324,
  "Mount": 66226,
  "Ġoptics": 69026,
  "çĶ»éĿ¢": 20215,
  "ĠChuck": 61602,
  "çģŃäº¡": 74830,
  "oq": 125621,
  "ÐºÑģÐ¸": 34493,
  "æīĢèĩ´": 40348,
  "Ġchoix": 82804,
  "ç²¾åŃĲ": 77132,
  "easy": 101927,
  "'ac": 86933,
  "Ġflee": 53920,
  "ĠPronunciation": 66258,
  "CLA": 48125,
  "å°§": 40727,
  "å®¡åĪ¤": 28092,
  "çİĭæľĿ": 37619,
  "Publisher": 15750,
  ".charAt": 40018,
  "Ġradially": 106245,
  "æį§çĿĢ": 109769,
  "Ġpolls": 52052,
  "Ġprimary": 6074,
  "ubl": 2881,
  "vÃ©": 44251,
  "ĠAbb": 28720,
  "æ·±åİļçļĦ": 84679,
  "Hi": 23166,
  "Ġabrasive": 109954,
  "Ġaddress": 3756,
  "æŁĲæŁĲ": 36859,
  "agn": 2558,
  "Ġzabaw": 123948,
  "åĪĽæĦı": 29210,
  "æľīæĸ°": 127688,
  "Price": 20967,
  "ograp": 16969,
  "Rules": 71477,
  "éŀł": 57578,
  "ock": 1355,
  "msg": 23576,
  "Ã©rieure": 79815,
  "Providers": 127589,
  "Ġestimate": 13236,
  "Ġlyrical": 102209,
  "åįĶèŃ°": 98943,
  "%,": 6467,
  "ĠSel": 18070,
  "à¸§à¸Ļ": 27516,
  "ĠÐĹÐ°Ð¿Ð¾ÑģÐ»ÐµÐ½Ð¾": 127926,
  "intah": 64624,
  "Ġfopen": 124657,
  "ĠØªÙħØ±": 90731,
  "Ġyouthful": 75233,
  "æ·Ĩ": 62924,
  "ä»£è¡¨": 4929,
  "Ġà¦¶à¦°à§Ģà¦°": 121255,
  "èĤ¡æĿĥæĬķèµĦ": 114202,
  "Ġagency": 12693,
  "ĠSIMBAD": 117572,
  "å¯©": 38669,
  "Ġatop": 61914,
  "Ġworld": 2058,
  "dog": 42452,
  "ĠØ¨Øª": 24380,
  "Ġ\"\",Ċ": 50014,
  "Ġexplaining": 26131,
  "ĠDSC": 125406,
  "ĠÙĪØªØ³Ø¬ÙĬÙĦØ§Øª": 117844,
  "Ġair": 3525,
  "414": 20763,
  "ĠBuildings": 78308,
  "Ġshoes": 21338,
  "Ġwoord": 125290,
  "à¸¸à¸Ļ": 36852,
  "ĠAFTER": 106728,
  "ĠÎ¸Î·Î»ÏħÎºÏĮ": 53695,
  "æĬµåĪ¶": 65882,
  "åħ±äº§ä¸»ä¹ī": 53019,
  "ĠÐ¸ÑİÐ»Ñı": 116227,
  "ä¸įéĢĤåºĶ": 115667,
  "æĬĬå®ĥä»¬": 82617,
  "yh": 122527,
  "onti": 122083,
  "ĠFletcher": 70148,
  "æĵįä½ľ": 5667,
  "Ġovaries": 113406,
  "ç»ĵå±Ģ": 38040,
  "Ġgate": 14742,
  "Ġtill": 12287,
  "ĠNate": 84078,
  "ĠRussell": 29358,
  "ĠBaptist": 42833,
  "Morgan": 103808,
  "ĠStunden": 113108,
  "ç¤¾å·¥": 76195,
  "èĸª": 17342,
  "è´Ńçī©": 30612,
  "æĿ¾é¼ł": 120703,
  "éĤ®ä»¶": 30886,
  ".Find": 59886,
  "ä¼ĺèī¯ä¼łç»Ł": 106570,
  "ĠEdited": 71094,
  "ĠØ§ÙĦØ¯": 11373,
  "lik": 13626,
  "Ľ×ł×¡": 110049,
  "æ°ĳä¸»ä¸»ä¹ī": 94089,
  "Ġ+++": 64159,
  "Ġrefriger": 31010,
  "Ġ(âĪĴ": 52515,
  "éĤ£å°ı": 100233,
  "197": 2254,
  "Ġà¦¨à¦¿à§Ł": 121133,
  "ĠÐ·Ð°Ð½Ð¸Ð¼Ð°": 52768,
  "Ġhonesty": 51111,
  "ĠArqu": 113086,
  "itud": 9110,
  "noun": 43224,
  "âŁ©": 48538,
  "Ġfurthest": 122091,
  "xx": 7234,
  "ivement": 68666,
  "dostÄĻp": 106390,
  "è¾ĥçŁŃ": 94246,
  "\\((": 121036,
  "ä¸İä¼ģä¸ļ": 73937,
  "them": 47938,
  "æ¶īåıĬ": 12304,
  "Ġnau": 41200,
  "Ġtonne": 55618,
  "äºĶæĺŁ": 62651,
  "Ġwrite": 5085,
  "å¹´åº¦": 12884,
  "Ġrapidement": 105806,
  "Recommended": 69544,
  "ĠCycles": 125993,
  "Ġchronic": 12439,
  "ç¬¬äºĮæŃ¥": 70116,
  "ftp": 113796,
  "ĠRees": 124505,
  "ĠGreenwich": 97460,
  "Ġatual": 87114,
  "ĠÑĢÐ°Ð·Ð½ÑĭÑħ": 68417,
  "ç»ĵæŀĦçļĦ": 32141,
  "fare": 30262,
  "Proc": 50580,
  "obium": 109363,
  "geal": 58777,
  "ä¾įåį«": 74211,
  "B": 36,
  "BF": 27268,
  "ĠPhen": 47576,
  "ĠÐ¾ÑĤÑģ": 106030,
  "Ġtwelfth": 93429,
  "Ġfondamentale": 106910,
  "æŃ¤çĶŁ": 115724,
  "Ġirreversible": 70972,
  "mb": 17330,
  "Ġbishops": 68830,
  "çİ°å®ŀä¸Ń": 79075,
  "Ġbuck": 20160,
  "ç¾İ": 1533,
  "Ġparser": 42952,
  "Ġbattling": 77258,
  "è§ĴèĲ½éĩĮ": 106250,
  "Ġij": 68588,
  "TIME": 123869,
  "PATH": 89849,
  ";i": 11844,
  "ACC": 36203,
  "ĠØ¨Ø§ÙĦØª": 95040,
  "Ġsaid": 1359,
  "æ¯Ķè¼ĥ": 25176,
  "è®¡": 1386,
  "ãģ¹": 22137,
  "Ġlikes": 21711,
  "æĥ³åģļ": 102875,
  "Ġpad": 19295,
  "ä¿": 683,
  "Ġwillingness": 34641,
  "generational": 113323,
  "Ùı": 7680,
  "anu": 64581,
  "ãĢįï¼Ī": 76924,
  "ĠHygiene": 95461,
  "åıĺéĩı": 14656,
  "«çĹ": 43117,
  "Ġshrou": 123916,
  "ç¬¬åįģåĽĽ": 62906,
  "å¿ħéľĢåĵģ": 124979,
  "æ§ĭéĢł": 81172,
  "Ġyourself": 7405,
  "åı°é£İ": 66224,
  "å¹¶å¤Ħ": 120169,
  "Ġrelied": 38659,
  "ĠFantasy": 58966,
  "æĸĩåĮĸ": 3415,
  "Ġtraditional": 7075,
  "ä¹ĭèĭ¦": 121404,
  "åĲ¸å¼ķ": 12364,
  "Ġdost": 35922,
  "Ġairport": 25660,
  "éļıæīĭ": 55711,
  "Ġweg": 67313,
  "ä¸ĵé¡¹æķ´æ²»": 74255,
  "åĨħéĥ¨æİ§åĪ¶": 88735,
  "æĬķ": 2519,
  "Ġspells": 56344,
  "Ġ--": 3820,
  "ĠØ²ÙħØ§ÙĨ": 41053,
  "åĽ½èµĦ": 78672,
  "...âĢĿĊĊ": 64557,
  "Ġstocked": 116607,
  "ĠAden": 75707,
  "âŀķ": 92789,
  "ivism": 46638,
  "èµģ": 26551,
  "Mix": 98020,
  "Ġardent": 123132,
  "çİº": 72462,
  "Ġdeliberation": 111618,
  "ivu": 85374,
  "åİ»å¹´": 15853,
  "äºĮæ°§åĮĸç¢³": 51759,
  "åºŁæŃ¢": 123959,
  "Ġhemorrhage": 69535,
  "ĠÏķ": 55433,
  "ĠAnnounces": 117940,
  "äº¦æľī": 62181,
  "ĠAdministrator": 50077,
  "Ġelim": 10267,
  "func": 12642,
  "éĥĿ": 42981,
  "çī¹è´¨": 72826,
  "Ġnum": 893,
  "à¸²à¸ĺà¸´": 118990,
  "Ġdevil": 43130,
  "äºĨä¸Ģéĺµ": 77513,
  "äººäººéĥ½": 78736,
  "åĪ°äºĨ": 2794,
  "è¡Ŀçªģ": 118866,
  "å½¢å¼ıçļĦ": 37343,
  "à¦ŀà§įà¦ļ": 77271,
  "ELF": 71504,
  "ä¼º": 41341,
  "ç®ĢçŁŃ": 102475,
  "æĵĤåı°": 108509,
  "hof": 63881,
  "è¿Ļä¹Łæĺ¯": 22754,
  "Ø±ÙĬÙĦ": 75026,
  "è½»æĿ¾": 18701,
  "[])": 63491,
  "Ġsun": 6029,
  "ĠSuppose": 15832,
  "674": 29374,
  "Ġpou": 12820,
  "Ġprocess": 1699,
  "Action": 15656,
  "EMP": 88744,
  "Ð°Ð½Ð³": 105684,
  "Ġmalign": 50961,
  "_error": 39828,
  "Ġguests": 21327,
  "Ġì¦ī": 94745,
  "-Related": 100705,
  "Ġresisted": 72402,
  "Ġelemento": 64570,
  "udge": 28771,
  "ĠSchemes": 109497,
  "à´Ł": 69527,
  "é¢¤åĬ¨": 115659,
  "ÎºÎ¿": 44301,
  "ĠÐ¿Ðµ": 13022,
  "ĠMAP": 42175,
  "ĠCPUs": 125836,
  "ĠØ§ÙħØ§Ùħ": 92503,
  "Ġshy": 40950,
  "Ġcultivating": 73837,
  "è¿Ľä¸ĢæŃ¥": 6410,
  "ĠSelected": 44017,
  "Ġff": 40954,
  "ĠIndoor": 82900,
  "ĠPV": 33524,
  "à¥ģà¤¦": 92896,
  "_RE": 38894,
  "Ġfortnight": 116401,
  "èĭĵ": 47712,
  "ä¼łç»Ł": 6821,
  "Ġseder": 120205,
  "added": 47058,
  "Ġsque": 63662,
  "ĠÑģÐ°Ð¹ÑĤÐµ": 116605,
  "ubscript": 88635,
  "Ġdepress": 80461,
  "#\"": 119716,
  "Ġpremi": 28112,
  "ĠSao": 102056,
  "ĠAirl": 47821,
  "è®¤åı¯çļĦ": 122144,
  "à¦¯": 35997,
  "acus": 89038,
  "<｜place▁holder▁no▁3｜>": 128003,
  "ĠÐ¾ÑģÑĤÐ°Ð½Ð¾Ð²": 121185,
  "à¸ķà¸±à¹īà¸ĩ": 39670,
  "è¥¿åĮĹ": 24178,
  "åº«": 39103,
  "åĥ§": 22965,
  "åľ¨æķĻèĤ²": 108110,
  "ä¸įçĶļ": 112333,
  "æ¸ĶèĪ¹": 125741,
  "andel": 39513,
  "ADC": 62237,
  "road": 12813,
  "ä¸ŃäºĨ": 47847,
  "Ġinconvenience": 93416,
  "fluence": 55188,
  "Ġseule": 42998,
  "igmat": 67960,
  "éĵ¶è¡ĮåŃĺæ¬¾": 64688,
  "Ġdocumented": 28793,
  "à§ĩà¦¯à¦¼": 60511,
  "Ġalternatives": 23247,
  "ĠDining": 112792,
  "ãĢĭï¼ļ": 84884,
  "Ġpouze": 89366,
  "è¦ĨçĽĸçİĩ": 126402,
  "-but": 57803,
  "ĠKramer": 94416,
  "Ġcylind": 31193,
  "Ġrt": 72947,
  "Ð¾Ð»ÑĮ": 4038,
  "<｜User｜>": 128803,
  "GRO": 33922,
  "ĠÏĥÏĦ": 35685,
  "çīĪæĿĥ": 27915,
  "åıĳè¡ĮçļĦ": 76575,
  "æ¿ĢåĬ±": 20471,
  "108": 6924,
  "ĠÚ¯Ø³Øª": 110981,
  "ĠSecure": 56405,
  "ĠReinforcement": 119376,
  "Ġcourtesy": 39590,
  ".level": 118617,
  "consult": 62606,
  "Ġinventions": 75878,
  "è¼ķæĺĵ": 120612,
  "ìĽ": 10204,
  "Ð¾Ð¶Ð´ÐµÐ½Ð¸Ðµ": 89648,
  "æĻ®æ´±": 69808,
  "Ġpreset": 91522,
  "å¾Īåı¯èĥ½": 44038,
  "ĠInterventions": 84816,
  "-coll": 87937,
  "Prod": 81742,
  "ĠëıĦ": 32819,
  "Ġjak": 15247,
  "æľĢéĩįè¦ģ": 53191,
  "ç¦»è°±": 112885,
  "Ġscroll": 36306,
  "CMC": 103362,
  "ĠConst": 11895,
  "Ġefectos": 88262,
  "åĪĻä¸į": 121386,
  "chenko": 101716,
  "ç«¯åįĪèĬĤ": 102291,
  "çĬ¯": 6039,
  "Ġdeclines": 55831,
  "ĠExport": 43419,
  "sson": 27735,
  "å¦Ĥä¸Ĭ": 84968,
  "541": 25804,
  "ĠDiscrete": 94792,
  "`s": 71830,
  "éħĴåĲİ": 118666,
  "é«Ķç³»": 103821,
  "Ġ×ĳ×§": 60467,
  "Ġconosc": 73822,
  "Ġdel": 1543,
  "antib": 79596,
  "Definitions": 99188,
  "rone": 46239,
  "Ġ_$": 102433,
  "æĬĹçĶŁç´ł": 56199,
  "çº¢æĹĹ": 53448,
  "oustic": 29387,
  "Ġìĸ¼": 123564,
  "å¿ħé¡»æľī": 72848,
  "ederbÃ¶rd": 73933,
  "Ġawakened": 103976,
  "ocide": 48022,
  "å¿ĥå£°": 114210,
  "Morning": 118687,
  "Ġ(\\": 32417,
  "ĠBond": 32116,
  "Ġhopeful": 50799,
  ".description": 58196,
  "çĻĸ": 89048,
  "-ath": 120019,
  "Ġbeta": 21474,
  "ĠFoundation": 11988,
  "-domain": 79460,
  "æĬ¬å¤´": 29552,
  "æĬĺæĹ§": 50517,
  "æ¿Ģæ´»": 34864,
  "å°ıè¯´ç½ĳ": 60601,
  "Ġkre": 84192,
  "æĸĩä¹¦": 44129,
  "ĠCaf": 69596,
  "âĢĶâĢĶâĢĿĊĊ": 72141,
  "Ġ)=": 71739,
  ")=-": 87705,
  "èĹıçĿĢ": 69855,
  "æ°¨": 18067,
  "Ġrealism": 55660,
  "Ġcharities": 75429,
  "ĠÐ¸ÑģÐ¿Ð¾Ð»ÑĮÐ·ÑĥÑİÑĤÑģÑı": 99611,
  "æıĲåīį": 14242,
  "¼áĢ": 72366,
  "Ġpathogen": 46387,
  "ĠSkin": 43552,
  "åĬłäºĨ": 80952,
  "Ġentreprene": 18434,
  "ohyd": 23050,
  "ĠBob": 16358,
  "à¸ªà¸¡à¸±à¸¢": 106781,
  "Ġresh": 54824,
  "Ġacquaint": 54402,
  "å¹´å°ĳ": 83908,
  "009": 19093,
  "ĠsocietÃł": 93760,
  ",et": 92616,
  "Ġevidently": 62403,
  "\"):Ċ": 89864,
  "éĢĽéĢĽ": 116351,
  "ĠProte": 35970,
  "à±įà°¯": 52944,
  "Ã§aise": 59601,
  "Ġsubtracting": 51875,
  "133": 9250,
  "æľīæīĢä¸įåĲĮ": 62944,
  "ĠmÅĤod": 97938,
  "è½¨": 13177,
  "ç¦ª": 115258,
  "çºº": 27614,
  "ĠdiffÃ©": 31096,
  "(I": 26101,
  "ificate": 16637,
  "Ġsuccumb": 89968,
  "hops": 27227,
  "åĪĽéĢłçļĦ": 81502,
  "åįİåĮĹ": 56731,
  "Ġattempt": 6041,
  "é«ĺäºĮ": 60313,
  "<｜place▁holder▁no▁500｜>": 128500,
  "æŃ¤æ³ķ": 100244,
  "ĠMim": 96616,
  "ä»¶äºĭ": 13576,
  "Ð½ÐµÐ½Ð¸Ðµ": 35433,
  "Apple": 46099,
  "éĩįåıł": 60893,
  "=N": 87413,
  "Ø§ÙĦØ¹": 69577,
  "NotFound": 44701,
  "å¥ĭåĭĩ": 91630,
  "Ġjanvier": 88680,
  "ĠÐ³Ð°Ð·": 52573,
  "Ġcatap": 123538,
  "OPEN": 90380,
  "ĠUk": 14153,
  "ujuan": 58217,
  "Ġrelaxed": 34069,
  "ä¹ĭä¸Ģæĺ¯": 112799,
  "Ġempir": 51934,
  "ĠÙĬØ³": 59417,
  "ipient": 109151,
  "Ġporosity": 74149,
  "æĺ¯æĪĳåĽ½": 45200,
  "Ġwarmth": 35166,
  "-esteem": 46000,
  "ĠBench": 50102,
  "TeX": 67854,
  "åĽ½åľŁèµĦæºĲ": 101247,
  "åıĳçİ°äºĨ": 28749,
  "ente": 6846,
  "834": 32054,
  "ĠLEAD": 121331,
  "ĠvÃ¦": 59845,
  "Ġâĺħ": 51096,
  "ä»ĸä¼ļ": 38750,
  "Ġwelded": 110421,
  "Ġbasin": 38563,
  "Ġtombs": 102345,
  "lux": 94667,
  "Ġfamil": 7116,
  "ĠBeginner": 108984,
  "Ġbehaves": 83872,
  "ĠÐĶÐ°Ð½": 97867,
  "ç¹Ķ": 28023,
  "ocrates": 52112,
  "Ġindividual": 2811,
  "ĠPixel": 83080,
  "Ġarticular": 116444,
  "Ġdebuted": 120036,
  "erner": 39836,
  "Ġsid": 27967,
  "ĠRegist": 59390,
  "ãĥ¤": 63366,
  "Ġmetall": 26124,
  "Ġpool": 11761,
  "ĠInterest": 19023,
  "Ġneutrophils": 102802,
  "æ¾³å¤§åĪ©äºļ": 36678,
  "çĶ³æĬ¥": 21811,
  "useppe": 73500,
  "ilos": 7003,
  "ĠMiscellaneous": 99556,
  "Ġgathered": 21724,
  "029": 30079,
  "Ã¬nh": 32583,
  "æ¨£åŃĲ": 46704,
  "ĠVARI": 122550,
  "åĴĮä¸ĢäºĽ": 83538,
  "åħļç»Ħä¹¦è®°": 73416,
  "éĿĴå¹´": 9759,
  "Ġnotation": 16584,
  "fs": 8391,
  "ä¸ĭå±±": 61175,
  "å¿µ": 3294,
  "Ġtransformed": 23785,
  "çĶŁå¹³": 99051,
  "quartered": 104981,
  "ãĤ¸ãĥ¥": 122073,
  "unnen": 25120,
  "å¤©æīį": 39141,
  "udem": 85920,
  "Ġê³ĦìĤ°": 124099,
  "ĠCoefficient": 103836,
  "Box": 11461,
  "ĠØªÙĪ": 38737,
  "èº«æĹģ": 42232,
  "ä¹Łè¡¨ç¤º": 117444,
  "éĺİ": 42518,
  "ĠÙģØ±Ùħ": 107194,
  "ĠComple": 90412,
  "Ġtaxation": 48321,
  "ĠGeorgian": 77479,
  "ĠKas": 42745,
  "Ġdamn": 40636,
  "é©³åĽŀ": 93955,
  "odied": 73786,
  "Ġacids": 16733,
  "åįİä¸ľ": 58025,
  "Ġcaso": 21591,
  "åĤ·å®³": 71820,
  "ĠAstra": 109381,
  "ä¼°è¨Ī": 75226,
  "ĠVoluntary": 126047,
  "icago": 11877,
  "ĠMP": 18163,
  "Ġkunt": 61125,
  "ĠPace": 94525,
  "Ġcontact": 5310,
  "Ġswallowing": 80720,
  "æķĻç§ĳä¹¦": 66575,
  "å¤§æ¹¾åĮº": 121973,
  ".ok": 103504,
  "Ġsanitary": 100843,
  "é¡¶çĤ¹": 44027,
  "èħ¥": 40035,
  "ĠNach": 28116,
  "æĦŁ": 1437,
  "åĪ©å¤ļ": 127153,
  "Ġthru": 88536,
  "Ġcomplicate": 103016,
  "ĠCaucasus": 119101,
  "ä¸ĩäº¿åħĥ": 86819,
  "Check": 15205,
  "çİ°åľ¨å·²ç»ı": 64720,
  "luent": 51691,
  "AML": 70861,
  "ç¼ĸè¾ĳ": 11196,
  "ä¿¡æģ¯ç³»ç»Ł": 51967,
  "Ġingest": 107939,
  "ĠOC": 60185,
  "èĹĿè¡ĵ": 51443,
  "åĽłåħ¶": 52463,
  "iei": 105661,
  "åįģåĪĨçļĦ": 69009,
  "å¼§åº¦": 96505,
  "çĽ²çĽ®": 45159,
  "ruzione": 113958,
  "Ġbraces": 88858,
  "æľīçĤ¹åĦ¿": 89936,
  "å¥³åıĭ": 59023,
  "Ġsmallest": 19904,
  "è½»è§Ĩ": 95558,
  "Ġcircling": 117963,
  "Ġgep": 58977,
  "Ġeinzelnen": 115135,
  "ĠÐŁÐ¾": 14861,
  "åĪĽç«ĭ": 50617,
  "ĠGarc": 30338,
  "à´µ": 58350,
  "take": 50836,
  "æ£ķ": 37365,
  "John": 14441,
  "ĠRhodes": 60664,
  "_copy": 104376,
  "æĶ¿æ²»": 5842,
  "Ġ[...]": 30283,
  "æĻĹ": 77911,
  "åĨ·éĵ¾": 122718,
  "ĠDermatol": 102835,
  "å®īåį±": 105580,
  "Ø¬Ø§Ùĩ": 73863,
  "Ġantioxid": 27606,
  "Ġcontenders": 122898,
  "åı£ä¸Ń": 43254,
  "ahan": 12000,
  ".email": 55876,
  "iosity": 20785,
  "Ġedit": 19482,
  "zenie": 26449,
  "å¹³æĸ¹ç±³": 22359,
  "ä¸²": 10596,
  "OUT": 19928,
  "SAT": 96308,
  "rang": 48860,
  "æİ¥åı£": 21139,
  "éĽĨä¸Ńåľ¨": 45023,
  "Õ¡Õ´": 31540,
  "choices": 107466,
  "<_": 108645,
  "å¨±ä¹ĲåľĪ": 66550,
  "ĠMycobacterium": 124953,
  "\\\\\\\\": 22552,
  "\\to": 36296,
  "Ġvele": 111633,
  "Ġparabola": 96175,
  "Ġredefine": 105933,
  "Andy": 101554,
  "æľīä¸Ģä¸ª": 11513,
  "ä¸įåĲĮ": 3007,
  "ĠLabels": 95998,
  "-item": 30841,
  "<｜place▁holder▁no▁325｜>": 128325,
  "Ġsummarize": 45706,
  ".cloud": 77839,
  "ĠmÃ©g": 76648,
  "embro": 45476,
  "ĠprzykÅĤad": 106454,
  "åĺŁåĺŁ": 105231,
  "æ³µ": 20132,
  "Ġmemoirs": 112592,
  "Ġremind": 16536,
  "ĠÑģÑĤÐ°ÑĤÐ¸ÑģÑĤÐ¸": 74320,
  "forces": 49742,
  "Ġbumper": 115372,
  "ÑģÑĤÑĢÐ¾": 22819,
  "Ø¯Ø±Ø³": 91728,
  "-paying": 121469,
  "470": 21170,
  "åľ°è²Į": 85981,
  "Ġlobby": 36519,
  "ults": 5447,
  "ÙĪÙĨ": 4012,
  "ĠCommissioner": 32284,
  "æłĳå¹²": 96618,
  "åħ´å¥ĭ": 21703,
  "Ġteammates": 58736,
  "Ġtempered": 115106,
  "ĠAdapt": 30166,
  "ØºØ±Ø§Ùģ": 56814,
  "ĠÙĪØ§ÙĦØ¯": 71435,
  "çĶ°ä¸Ń": 124670,
  "upl": 119354,
  "biological": 105863,
  "å®ķ": 95425,
  "Ped": 59351,
  "è¢«äººä»¬": 115761,
  "Ġturnovers": 120380,
  "Ġov": 19714,
  "Ġlonger": 5827,
  "Ġtrials": 16209,
  "ç¬¬äºĮè½®": 125369,
  "<section": 125121,
  "Experiment": 116334,
  "Query": 15628,
  "èĬĿåĬłåĵ¥": 85269,
  "æĺĵ": 2432,
  "æĻ¯çĤ¹": 35908,
  "olit": 11392,
  "èĥĥèĤłéģĵ": 96043,
  "Ø§Ø¹Ø¯Ø©": 47205,
  "æĬ¬èµ·å¤´": 54240,
  "å¯¹èĩªå·±çļĦ": 43555,
  "<｜place▁holder▁no▁481｜>": 128481,
  "Ġsponsor": 50797,
  "Ġwildlife": 25676,
  "Ġvolatile": 38740,
  "å·´é»İ": 33870,
  "_int": 42614,
  "oca": 15877,
  "èĦ¸ä¸Ĭ": 15264,
  "ĠØ¬Ø§Ùħ": 37274,
  "Ïµ": 52873,
  "OCs": 50247,
  "æī§è¡ĮçļĦ": 67496,
  "Multiply": 75242,
  "ĠØ³ÙĨÚ¯": 83522,
  "è¾¾": 2228,
  "reÄĳ": 81119,
  "Ġanimate": 89604,
  "Ġzem": 61216,
  "ĠWestern": 10734,
  "Ġmil": 2486,
  "Ġgar": 10047,
  "ĠSpeaking": 53622,
  "Ġrozw": 89758,
  "Ġgenres": 43110,
  "âĺħâĺħ": 37269,
  "å¹»æĥ³": 40893,
  "è¥¿æ±ī": 80066,
  "ÏĥÎ¹": 36476,
  "Ġcá»": 25934,
  "Ġmicrometer": 94319,
  "ĠÑĩÐ¸ÑģÑĤ": 111017,
  "è¹Ħ": 39523,
  "æ¯Ķä¸Ĭå¹´": 78493,
  "Ġtackled": 101017,
  "Ġbreastfeeding": 63101,
  "ĠStandards": 24464,
  "ABC": 29080,
  "Ġperception": 18115,
  "ĠNick": 21799,
  "Ġviolations": 35867,
  "à¦®à¦¨": 62802,
  "åħ¨æĸ¹ä½įçļĦ": 118777,
  "Ø§ÙĦØ§Øª": 54257,
  "ĠSac": 24824,
  "Multiplication": 98368,
  "æ°Ķç®¡": 31853,
  "è·¨": 10581,
  "enser": 43417,
  "ä¸ĭèº«": 112677,
  "ĠÐľÐµ": 49940,
  "ĠPA": 17169,
  "Ġcliffs": 78971,
  "Ġbestowed": 100672,
  "èĤ¡æľ¬": 104797,
  "ĠNovember": 5997,
  "ÏĥÏĦÎ¿Ïħ": 126553,
  "chema": 19851,
  "Ġ×Ĵ×ĳ": 88829,
  "macro": 116634,
  "ĠPowerful": 101330,
  "ĠMama": 59871,
  "atural": 3204,
  "Food": 35937,
  "ĠDream": 25373,
  "Ġ\"^": 98049,
  "Ġreactors": 73294,
  "à¹Ħà¸Ĺà¸¢": 39311,
  "æķĻèĤ²åŃ¦": 112718,
  ".prev": 92754,
  "åģĩçļĦ": 50407,
  "à¸¶à¸ģ": 20547,
  "orgen": 78664,
  "Ġmoods": 94600,
  "ĠÐ¸ÑģÑĤÐ¾ÑĢÐ¸Ð¸": 60220,
  "ÑģÑĤÐ°Ð½Ð°": 57757,
  ".getName": 71606,
  "æºĲæºĲ": 81029,
  "åĴĮåĨħ": 125247,
  "Ġgia": 113588,
  "Ġzombies": 124607,
  "<｜place▁holder▁no▁47｜>": 128047,
  "æĢ»å±Ģ": 44762,
  "Polish": 75022,
  "èĲ½å®ŀæĥħåĨµ": 112341,
  "accurate": 53617,
  "vs": 30047,
  "antium": 107252,
  "Ð¶Ð°Ð¹": 121963,
  "ULL": 6552,
  "à¦¿à¦¨à§įà¦¦": 118592,
  "ĠSalem": 69601,
  "Ġfind": 1783,
  "Core": 21878,
  "athi": 60052,
  "Ġarbitrarily": 79556,
  "çĸĹæķĪ": 38985,
  "ĠFlower": 53986,
  "Ġintricate": 30533,
  "Ġsuffixes": 119592,
  "ĠLex": 33541,
  "essÃ¤": 90337,
  "Ġpag": 15402,
  "ãĤº": 31261,
  "ĠDaten": 64373,
  "ĠMoscow": 27127,
  "âĢĿ)": 22012,
  "ĺ×Ļ": 108585,
  "ĠSaw": 46396,
  "ĠLorem": 101339,
  "Ġtechn": 2114,
  "ĠCross": 13090,
  "Ġpredominantly": 37408,
  "Ġunic": 65600,
  "ĠInfinite": 93852,
  "axios": 95768,
  "ĠPamela": 99038,
  "'+": 73970,
  "Ġ)ĊĊ": 9389,
  "ĠAssemb": 116168,
  "åĬłå¯Ĩè´§å¸ģ": 114847,
  "ĠDatuak": 89727,
  "achsen": 108704,
  "-going": 77045,
  ".Assert": 77568,
  "ictionaries": 55185,
  "åĮº": 1369,
  "ĠScala": 107860,
  "Ġvalidated": 39558,
  "Ġplacement": 24550,
  "à¯ģà®µ": 48305,
  "ĠGets": 53537,
  "Ġgirl": 6482,
  "Ġisolating": 98265,
  "Ġpengetahuan": 107375,
  "å¡ŀ": 8240,
  "Ġencl": 24572,
  "æĢ»ç»ĵ": 10728,
  "ä¾ĽåºĶåķĨ": 33704,
  "å¥¥è¿ª": 84200,
  "ĠÑĢÐ°ÑģÑģÐºÐ°": 56056,
  "å¸Ī": 1767,
  "Ġpagklasipika": 113899,
  ".St": 48097,
  "Ð²Ð¾Ðµ": 53953,
  "dade": 85207,
  "Ġobjects": 8435,
  "çļĩ": 5266,
  "éļıå¿ĥ": 99511,
  "PM": 9381,
  "IPE": 87285,
  "åĵģç±»": 82095,
  "Ð°Ð»ÑĮÐ½Ð¾Ð¹": 98266,
  "çĪºçĪº": 94603,
  "cpp": 85525,
  "åıĳèĦ¾æ°Ķ": 115500,
  "Ġsess": 62379,
  "ãģ«ãģªãĤĭ": 37632,
  "âļ": 71658,
  ".Em": 59872,
  "-length": 45462,
  "Ġviscous": 83418,
  "ĠSTATE": 58758,
  "ĠPrussian": 112993,
  "ä¸įéĶĪéĴ¢": 62638,
  "çĶŁæ®ĸ": 43659,
  "è¯·": 2788,
  "ÄįÃŃslo": 106597,
  "ĠWilliams": 15513,
  "hore": 108801,
  "icios": 34304,
  "atures": 3849,
  "ÛĮÙĩ": 27727,
  "ĠCharlie": 33075,
  "ĠDesarrollo": 108620,
  "ĠÐ¾ÑĢÐ³Ð°Ð½Ð¾Ð²": 87396,
  "306": 17622,
  "Ġlarge": 3226,
  "quiry": 18918,
  "ĠNaN": 81409,
  "NM": 62100,
  "riches": 109758,
  "åīĬ": 16855,
  "å¹´åīįçļĦ": 76834,
  "ĠNero": 122153,
  "ĠkB": 117957,
  "porte": 91838,
  "æī¾åĪ°ä¸Ģä¸ª": 82768,
  "èĢĥçļĦ": 126957,
  "iques": 4751,
  "æĿ¥æºĲäºİ": 34082,
  "à¸·à¸Ń": 8575,
  "æĪĳçļĦæīĭ": 91191,
  "æ¢¦æĥ³": 19163,
  "atically": 10196,
  "ç½Ĺ": 4455,
  "Ġunseen": 71059,
  "LH": 96587,
  "-em": 29093,
  "ĠDeWalt": 56302,
  "æĬ«éľ²": 34483,
  "Strateg": 73439,
  "Ġ{Ċ": 875,
  "Ġplead": 71852,
  "ãĥŀãĤ¤": 102210,
  "Ġà¦«à¦²": 119345,
  "Ġnoses": 112142,
  "à¸¹à¸¥": 37065,
  "æľĢç®Ģåįķ": 115173,
  "å·ĿèĬİ": 119542,
  "åı¥å¼ı": 127874,
  "ä¸¾åĬ¨": 48945,
  "employ": 34729,
  "pri": 4652,
  "ndef": 48604,
  "äº§å¦ĩ": 68394,
  "mant": 51137,
  "Ġ*_": 57250,
  "ĠkterÃ¡": 55678,
  "à¸Ħà¹īà¸Ļ": 126671,
  "èĨĬ": 37854,
  "æ¶Įçİ°": 57751,
  "æĥŃæĦ§": 110844,
  "Ġsugg": 3763,
  "agues": 15258,
  "Ð¾Ð±Ðµ": 98989,
  "Ġintroducing": 27671,
  "æľªæĿ¥åıĳå±ķ": 126649,
  "åİ¿å§Ķä¹¦è®°": 93884,
  "å¹´ä»½": 57393,
  "ificador": 126953,
  "è¿Ļä»½": 31595,
  "ĠBraz": 85680,
  "Suddenly": 93343,
  "(filename": 62975,
  "ä¸ĩè¾Ĩ": 73757,
  "èĩªåį«": 97404,
  "Ġspontaneous": 37459,
  "é«ĺæķĪçİĩ": 119170,
  "çĶľèľľ": 49575,
  "çĤ¹æķ°": 86555,
  "Ã©d": 9106,
  "Ġsuppliers": 30694,
  "ground": 4411,
  ".\")Ċ": 54018,
  "åĪ°ä»Ĭå¤©": 127759,
  "çĩŁé¤Ĭ": 90490,
  "ĠLT": 59523,
  "ä¹Łè¢«": 28450,
  "ĠAfric": 5064,
  "æĸĩäºº": 55715,
  "è¿·å®«": 117257,
  "æĿŁç¼ļ": 49661,
  "ĠÐµ": 4359,
  "%d": 47235,
  "æĻºåķĨ": 64322,
  "ĠMatem": 86010,
  "Ð¸ÑģÐ¼ÐµÐ½Ð¾": 124294,
  "ì¢ħ": 41976,
  "ivals": 23044,
  "èĻĶ": 63878,
  "Ġunsustainable": 119004,
  "earning": 104793,
  "ĠLatina": 71100,
  "åĽłä¸ºæ²¡æľī": 91320,
  "éķ·æĻĤéĸĵ": 119152,
  "èĩªåĭķ": 56520,
  "èĢĲç£¨": 92543,
  "Ġjournalist": 36006,
  "-cig": 112153,
  "à¦¾à¦¥à§ĩ": 67460,
  "ä¸įçŁ¥éģĵ": 6468,
  "Circle": 66129,
  "ãģĹãĤĩãģĨ": 24521,
  "ä¹ĭåıĪ": 118971,
  "èĢĲèį¯": 111035,
  "-first": 45152,
  "å¯Ĩå¯Ĩéº»éº»": 94050,
  "æķĻåŃ¦è¿ĩç¨ĭ": 97797,
  "å·¥ä½ľçļĦéĢļçŁ¥": 94139,
  "Ġdriver": 12789,
  "åħĥå¹´": 48970,
  "ĠAnglic": 67136,
  "Ġdiction": 122710,
  "ĠÎ¥": 93197,
  "ĠStalin": 52929,
  "dependency": 125295,
  "æ·±åħ¥": 8783,
  "Ġresent": 50032,
  "ĠBehavioral": 49091,
  "sters": 22689,
  "ĠCann": 38982,
  "omach": 103139,
  "Ġ×Ľ×": 11102,
  ")'": 55898,
  "å¤§åĵ¥": 23904,
  "ĠDatabase": 20884,
  "Ð³": 1490,
  "Ġcorresponds": 25427,
  "Ġhelmet": 58038,
  "`;ĊĊ": 68096,
  "cmd": 61402,
  "çĤ¹ä¸º": 88146,
  "éģĵåıĭ": 87821,
  "\\;": 61946,
  "ĠLiverpool": 36730,
  "/pm": 30744,
  "Ġparall": 92930,
  "Ġverbose": 61688,
  "æĹ¥åĴĮ": 118699,
  "çĺĻ": 95686,
  "æĦ¿ä½ł": 88960,
  "097": 35354,
  "Ġcategorization": 109864,
  "ä¸ĭåĽ¾": 74166,
  "ĠWorst": 119408,
  "ĠSab": 23202,
  "Ġbrine": 100827,
  "Tax": 38954,
  "ĠdÃ©finition": 125885,
  "rani": 78765,
  "ĠÐºÐ°Ð¶Ð´": 24082,
  "å¤ļä¸ĩåħĥ": 105405,
  "Ġcondizioni": 106029,
  "Gold": 37231,
  "å¼¥æ¼«": 49802,
  "æĹĭåį³": 87089,
  "Vert": 42077,
  "èı²çī¹": 110688,
  "Ġheut": 121805,
  "à¸ŀà¸·à¹īà¸Ļà¸Ĳà¸²à¸Ļ": 124754,
  "Ġreconciliation": 52630,
  "çĶ±åĽ½å®¶": 91818,
  ".subject": 69179,
  "Ġspeedy": 95105,
  "expansion": 126984,
  "!\");Ċ": 61924,
  "å±ķçİ°åĩº": 89130,
  "ç»·": 48369,
  "Ġtriumph": 37880,
  "Ð½Ð¸ÐºÐ°": 13862,
  "Ġalk": 16880,
  "ÙĦÙĬÙħ": 35605,
  "å¦Ĥæŀľæĥ³è¦ģ": 113673,
  "è¢«æĬĵ": 93054,
  "pple": 39005,
  "æłĩæ³¨": 42373,
  "æ²¼æ°Ķ": 126890,
  "Ġrequire": 3506,
  "ĠTR": 11756,
  "Ġextant": 81871,
  "Ġwaters": 16985,
  "Ġsoutheastern": 79297,
  "unless": 69190,
  "åĳ³ç²¾": 76214,
  "åľ¨éĩĮéĿ¢": 70213,
  "stable": 31527,
  "âĢĿ(ãĢĬ": 87682,
  "Ġï¼Ī": 10970,
  "ĠGriffin": 63841,
  "ĠCET": 63681,
  "ãģĹãģ¦ãĤĤ": 75967,
  "Ġevit": 79350,
  "inline": 46900,
  "éĢĻä¸Ģé»ŀ": 107898,
  "åĳ¼åĴĮ": 122683,
  "Ġgloom": 95177,
  "Ġparliament": 28013,
  "Ġmagnet": 21831,
  "ä¹ħä¹ĭ": 85193,
  "Descriptor": 83287,
  "zungen": 109100,
  "æ¤įæłª": 64854,
  "ĠLara": 102313,
  "åĺ¿": 23157,
  "ç»ĻæĪĳ": 11743,
  "äºĨå¥¹": 36358,
  "å®ŀæĵį": 120567,
  "Ġfacilities": 12666,
  "racts": 63898,
  "Ġordinances": 107362,
  "Ġunterst": 84648,
  "Ġ>>ĊĊ": 114560,
  "Ġvacu": 93218,
  "cin": 11294,
  "Ġyn": 41306,
  "à¦ģ": 54752,
  "ä¹±äºĨ": 80450,
  "æ¶¼": 52469,
  "å¾ĹæĽ´": 45242,
  "å¹²çº¿": 112614,
  "ĠdÃ©t": 52293,
  "æĳĨè®¾": 121706,
  "å¹´ä¸º": 85116,
  "Ġvoorkomen": 121624,
  "Ġinforms": 72635,
  "å¥¶èĮ¶": 60095,
  "kv": 61446,
  "posta": 73714,
  "äººåĳĺçļĦ": 27224,
  "Ġfrequently": 11477,
  "ĠÙĪÙĦÙħ": 92428,
  "ĠVos": 110204,
  "è¦ģæ³¨æĦı": 24446,
  "è©±": 7623,
  ".jpa": 112587,
  "éĢļçĶµ": 88231,
  "å®ıè§Ĥç»ıæµİ": 80874,
  "ĠAnalyzing": 83669,
  "å®Ľèĭ¥": 109202,
  "äºĨä¸ĢäºĽ": 16673,
  "ĠEmployment": 38533,
  "å±ħæĺĵ": 94726,
  "Ġhangs": 82446,
  "å»ī": 13084,
  "Ġabc": 71490,
  "ieck": 87932,
  "ĠÙĩØ¯Ùģ": 81961,
  "ĠLaurie": 98723,
  "Ġà¦®à¦¤à§ĭ": 114186,
  "ĠØ£ÙħØ§": 89202,
  "ĠPenn": 17080,
  "ĠCCS": 99359,
  "Ġdeeply": 17185,
  "à¸ķà¸£à¸µ": 96439,
  "Ġà¦¡": 34110,
  "ĠTurkey": 22955,
  "Ġperiodontal": 95332,
  "å¥½äºĭ": 36422,
  "ĠÐ°Ð·": 114891,
  "/doc": 127067,
  "åħļåĴĮ": 37182,
  "CTS": 100401,
  "Ġantip": 63871,
  "ĠDaven": 107862,
  "ä¸ĵä¸ļäººå£«": 99403,
  "ÑĩÐ½ÑĭÐµ": 43662,
  "ç¬¬ä¸ĢæľŁ": 106610,
  "Ġtrucks": 38800,
  "ĠìĿ´ìķ¼": 112943,
  "ä¸ªå·¥ä½ľ": 126870,
  "ĠSEE": 100503,
  "åĬ¨æ¼«": 60585,
  "çĭ¬åįł": 117415,
  "ĠTile": 116317,
  "ĠÑĤÐ°Ðº": 9454,
  "Ġisomer": 106377,
  ":**:": 87119,
  "rooms": 16458,
  "921": 30155,
  "ujan": 101037,
  "Ã¶": 2061,
  "Ġà¦¤à¦¾à¦°": 27270,
  "å§ĭç¥ĸ": 122693,
  "è®©ä½ł": 15652,
  "à¯įà®£": 115015,
  "ĠArkiverad": 58399,
  "æ´»åĬ¨çļĦ": 18193,
  "èĪĴå±ķ": 111974,
  "åŃ©ç«¥": 101935,
  "swers": 5462,
  "inken": 106259,
  "colonial": 95598,
  "Ġfalt": 124219,
  "ĠStore": 24064,
  "olve": 8889,
  "ĉstr": 96693,
  "multi": 49263,
  "Ġsignific": 2696,
  "Ġessentials": 81133,
  "gun": 14391,
  "changes": 60544,
  "çİĭå®¤": 108552,
  "ç»ĻæĤ¨": 81435,
  "Ġdeutschen": 78235,
  "ĠmÃŃnimo": 108096,
  "amos": 12140,
  "æīį": 1787,
  "addy": 30540,
  "éħ¥": 38453,
  "Ġclaiming": 34202,
  "pet": 10698,
  ",h": 58575,
  "Ġà¦¬à§įà¦¯": 29350,
  "Ġofficer": 13868,
  "Ġperceptual": 67288,
  "ä¼ļè¢«": 32384,
  "Ġarth": 28320,
  "veld": 77371,
  "èĦĬæ¤İ": 88679,
  "}|\\": 86943,
  "endoza": 93029,
  "çľ¼çľĭçĿĢ": 84454,
  "åĽ½æľī": 19277,
  "æ°ĳéĹ´": 21669,
  "æ·º": 62893,
  "Ġadaptive": 28864,
  "Ġworkings": 77014,
  "éĩįéĢ¢": 116740,
  "Ġmachine": 8126,
  "anity": 70747,
  "Ġemphasizes": 33286,
  "ĠÑĢÐµÐ»Ð¸Ð³Ð¸": 78902,
  "çļĦä¼łç»Ł": 57953,
  "éªĹ": 13156,
  "Ġdivul": 113361,
  "]])": 79370,
  "ĠÐ»ÑĥÑĩÑĪÐµ": 54236,
  "rav": 10356,
  "èĪĮå¤´": 65487,
  "Ei": 111459,
  "çļĦçĶŁ": 78389,
  "Ġtornado": 63965,
  "-equipped": 112349,
  "à¦¸à§įà¦¬": 126162,
  "å¼ĵç®Ń": 100500,
  "Ġunnatural": 92633,
  "ĠVerm": 30455,
  "ĠAmor": 117959,
  "ë¬¸íĻĶ": 95541,
  "ĠWritings": 113582,
  "cols": 99789,
  "Ġlegislation": 16167,
  "Ġmovies": 19526,
  "ĠFÃ¼": 80110,
  "Ġâģ": 115120,
  "Ġmainland": 54596,
  "Santa": 80079,
  "ĠØ§ÙĦØªØŃ": 63856,
  "åľ£å¥³": 123384,
  "Ġridges": 82529,
  "æĬķèµĦæĶ¶çĽĬ": 109256,
  "åħīæĺ¯": 58710,
  "ĠstyleUrls": 96450,
  "Ġlogout": 116703,
  "Ĥ": 227,
  "ä½¿å®ĥ": 97917,
  "ä»ĭäºİ": 91510,
  "licensed": 120623,
  "æĪĳæĿ¥": 38463,
  "ĠSuf": 97575,
  "Ġzakres": 100638,
  "äºĶè¡Į": 40863,
  "çļĦå¢ŀéķ¿": 66454,
  "RY": 37647,
  "Ġknowledge": 4134,
  "çĵ®": 114041,
  "Ġsalaries": 40301,
  "Ġcomputes": 89946,
  "ÙĪÙĦÙĪØ¬": 66197,
  "åĩĨå¤ĩäºĨ": 72968,
  "éļ¾åıĹ": 45579,
  "Ġreview": 3862,
  "Ġà®ķ": 19375,
  "ĠOlympics": 40261,
  "éĩĳåħī": 68960,
  "ĠMÃ©d": 81356,
  "ĠPunk": 86655,
  "evo": 70970,
  "ĠRising": 60560,
  "ÃĪ": 73419,
  "care": 8191,
  "RIS": 113548,
  "ydro": 5255,
  "å¿ĥæĤ¸": 95861,
  "è®¸åı¯è¯ģ": 36844,
  "iega": 111340,
  "Õ¸ÖĤÕ´": 24718,
  "Ġbab": 20219,
  "Ġopis": 117023,
  "ĠÑĩÑĥÐ²": 51655,
  "-ups": 34138,
  "éĻĲæľŁ": 79653,
  "ĠPÃ©": 52395,
  "ä¸ļæĢģ": 73181,
  "à¹Ģà¸Ľ": 7735,
  "quelle": 63016,
  "ĠĠĠĠĠĠĠĠĠĠĠĠĠĠĠĠĠĠĠĠĠĠĠĠ": 26154,
  "è´£ä»»": 5236,
  "å°įäºĨ": 108840,
  "Ġconclude": 21986,
  "é¢ľèī²çļĦ": 63407,
  "è¿Ļæľ¬": 71800,
  "æľīä¸Ģå®ļçļĦ": 40546,
  "Ġfeather": 34999,
  "åģ¥åº·çļĦ": 38554,
  "æĿĤå¿Ĺ": 22749,
  "ĠÐºÑĥÐ»ÑĮ": 36176,
  "à¸²à¸ł": 126278,
  "ç®Ĺæ³ķçļĦ": 71467,
  "Ġhereafter": 96227,
  "Ġconvinc": 39842,
  "ä¿©": 17027,
  "ĠClaire": 52496,
  "Submitted": 48212,
  "llen": 101648,
  "Ġtoast": 53230,
  "ä¸ŃåĲ«": 110292,
  "à¦¾à¦Ľà§ĩ": 80282,
  "éĿŀçī©è´¨æĸĩåĮĸéģĹäº§": 85640,
  "Ġoutlook": 35058,
  "longrightarrow": 91259,
  "ÑĢÐ¾Ð²": 7737,
  "ĠEmerson": 72204,
  "acter": 2182,
  "_eq": 55381,
  "Ġà¦¨à¦¿à¦°": 77521,
  "Ġmaar": 24141,
  "Ġï¿½ï¿½": 65990,
  "ĠShe": 2566,
  "è®¾ç«ĭçļĦ": 97390,
  "å¹¿æ³Ľ": 12051,
  "Ġencourage": 13919,
  "ĠÙħÙĪÙĦ": 117482,
  "å¦ĤæŀľåĨį": 122783,
  "ÙĩÙı": 63365,
  "\",": 1760,
  "Discuss": 97365,
  "ĠGov": 40172,
  "ĠĠĠĠĠĠĠĠĠĠĠĠĠĠĠĠĠĠĠĠĠĠĠĠĠĠĠĠĠĠĠĠĠĠĠĠĠĠĠĠĠĠĠĠĠĠĠĠĠĠĠĠ": 113709,
  "edly": 17653,
  "ÐµÐ½Ð½Ð°Ñı": 85528,
  "ãĤ¤ãĥ¡ãĥ¼ãĤ¸": 121413,
  "åĭŀåĭķ": 86132,
  "Fant": 107915,
  "gement": 61758,
  "ĠGOOD": 79890,
  "Ġpoli": 98074,
  "èĩī": 14562,
  "ĠÐ½ÐµÐ¾Ð±ÑħÐ¾Ð´Ð¸": 20655,
  "ĠÙĬÙĥÙĪÙĨ": 39811,
  "Ġfingerprints": 104323,
  "à¸±à¸ļ": 7913,
  "Till": 116929,
  "ÐµÐ½Ð½ÑĭÐ¼": 96561,
  "åľ¨æĪĳåĽ½": 38424,
  "engers": 21022,
  "ichever": 60755,
  "[http": 124630,
  "github": 14765,
  "ĠPing": 69181,
  "åĳ½åĲį": 39859,
  "ĠiPod": 110512,
  "893": 32908,
  "à¦¿à¦ľ": 36778,
  "ĠartÃŃculo": 61078,
  "established": 123175,
  "Cnt": 86374,
  "Ġsemantic": 37984,
  "ĠAndrews": 55768,
  "Ġmistress": 84593,
  "ä¸ĵçĶ¨": 27320,
  "Ġrestless": 80067,
  "imov": 109025,
  "åľ§": 68393,
  "Ġcoached": 104605,
  "ĠJOHN": 121198,
  "ZK": 86253,
  "Ġscient": 5915,
  "å¤ĸä¾§": 63687,
  "tences": 115257,
  "Ġlogical": 17241,
  "Rio": 109441,
  "å½ĵä»ĸä»¬": 95485,
  "æĭ¿èµ°": 109157,
  "å¨ĵ": 89584,
  "Ny": 77975,
  "å¿ıæĤĶ": 124346,
  "LOR": 87045,
  "èĢ³": 6858,
  "Ġcompass": 20410,
  "Ġbottles": 35967,
  "ĠÐļÑĥÑĢ": 112194,
  "è¿Ļç§įäºĭæĥħ": 82902,
  "Ġtravelled": 52591,
  "Ġwives": 46512,
  "ä¸įåĸĦ": 72139,
  "Ġmeal": 16464,
  "Ð¸": 393,
  "Ġì´Ŀ": 86126,
  "ĠPopulations": 92360,
  "íķĺë©´": 45685,
  "×ķ×Ļ×Ļ×Ŀ": 99054,
  "è¿Ľå£«": 71138,
  "è¿ĩå¤ļ": 32576,
  "azy": 33861,
  "ç²¾èĩ´çļĦ": 83862,
  "iaÃ§Ã£o": 127441,
  "ĠArtificial": 36754,
  "æµģ": 1684,
  "ĠCubic": 46706,
  "Ġassembl": 98277,
  "Ð»ÐµÑĤÐ½Ð¸Ð¼": 120229,
  "ĠSher": 18760,
  "King": 34038,
  "Checker": 117987,
  "nym": 23338,
  "æľĽè¿ľéķľ": 88894,
  "Ġbouncing": 91582,
  "çĥŃå¤ĦçĲĨ": 107115,
  "RATION": 85439,
  "çĶµåĬ¨æ±½è½¦": 80128,
  "heated": 115252,
  "_process": 102162,
  "ĠUser": 10037,
  "æĳĺ": 13029,
  ":mm": 117689,
  "ĠREP": 31684,
  "å¤®è§Ĩ": 60426,
  "Ġeviden": 45115,
  "åºĲå±±": 119871,
  "ĠScoring": 113960,
  "ÐļÐ¾Ð³Ð´Ð°": 120078,
  "(Arrays": 115216,
  "Ġzaw": 44371,
  "ITION": 33616,
  "Ġtranslating": 59926,
  "Ġvit": 8818,
  "æĢªåħ½": 93608,
  "Ã¼rgen": 125829,
  "Ġcontemplate": 85833,
  "ç»½æĶ¾": 53447,
  "æĢ": 524,
  "Ġ??": 35800,
  "çīĨ": 54720,
  "ÑĪÐµÑĤ": 108295,
  "avor": 4612,
  "Ø±Ø¨ÙĬØ©": 64758,
  "æĬ¥ä»ĩ": 69941,
  "iche": 11421,
  "åħ¶äºĮ": 69412,
  "-family": 36941,
  "ä½ıæĪ¿åħ¬ç§¯éĩĳ": 84746,
  "{a": 30162,
  "\":": 3362,
  "ĠICP": 101454,
  "bolt": 101257,
  "ĠÐ¾Ñģ": 8445,
  "ä¸ĢèĪ¬æĿ¥è¯´": 39605,
  "Ġtense": 28779,
  "ðĿĲ¶": 101614,
  "yal": 17444,
  "erge": 22576,
  "Ġrepaired": 65443,
  "è¿Ļä¸ªæĸ¹æ³ķ": 108835,
  "é¢Ħè§ģ": 81527,
  "éª¨éª": 47844,
  "Ġdrinking": 17497,
  "Ġtoughest": 106500,
  "çİĭæĸĩ": 111142,
  "-)": 54792,
  "Ġà¦¦à¦¿à§Łà§ĩ": 115800,
  "Ġresignation": 61816,
  "âĢº": 64304,
  "capt": 46319,
  "TOP": 51330,
  "ä¸Ģä¸ªæĸ°": 100018,
  "äºĮæīĭè½¦": 107492,
  "ahlen": 54390,
  "230": 11342,
  "èµĶåģ¿è´£ä»»": 76660,
  "çĺ©": 85614,
  "Rational": 120236,
  "andon": 15049,
  "ĠCe": 23114,
  "ĠANSWER": 91186,
  "Ġnore": 101928,
  "uhi": 58171,
  "analyse": 73258,
  "æĸ½åĬł": 59429,
  "Society": 116638,
  "itol": 35668,
  "Ġscoff": 115008,
  "rg": 40992,
  "ĠUpon": 33297,
  "Ġthá»ĥ": 78225,
  ".random": 39425,
  "Ġisomorphic": 124782,
  "Ġrequested": 21361,
  "æĥĳ": 13017,
  "Ġnons": 32810,
  "Mac": 28653,
  "Ġenkele": 102314,
  "ferred": 22293,
  "ĠPict": 38677,
  "-like": 11727,
  "($": 5428,
  "å·¥åĨµ": 87996,
  "åĨķ": 67323,
  "Ġnanow": 101065,
  "parallel": 69381,
  "ichia": 59399,
  "ç§ĭ": 6216,
  "Ġdissatisfaction": 83811,
  "ricular": 24810,
  "çŃīå½¢å¼ı": 61635,
  "_In": 106895,
  "æľŁçļĦ": 13247,
  "Ġsicurezza": 121555,
  "èĳĹä½ľæĿĥ": 57164,
  "Ġphyt": 49824,
  "pÃ¥": 96031,
  "SU": 7773,
  "æ©ŁåĪ¶": 112210,
  "isches": 52712,
  "ä¸ºæŃ£": 80178,
  "Ġpanjang": 83911,
  "ĠNik": 26009,
  "Ġhappens": 11396,
  "Î»Ïī": 123728,
  "ĠBackup": 101894,
  "Ġdefy": 116077,
  "å¤¯": 48598,
  "Trade": 76157,
  "qm": 108853,
  "Ġgreatness": 66543,
  "è¢Ħ": 122571,
  "ÄĻcia": 71125,
  "Ġpernah": 90180,
  "Ġengineers": 26170,
  "éĩįéĩĳå±ŀ": 102305,
  "optional": 41401,
  "ĠOrigin": 30479,
  "ĠÐ²": 1000,
  "Ġdizer": 104515,
  "Ġspending": 13512,
  "Fixture": 82020,
  ".....": 26142,
  "~~": 5906,
  "Ġsoak": 69217,
  "ĠInflu": 27813,
  "Ġ:)ĊĊ": 38276,
  "Ġnational": 5214,
  "esehen": 106057,
  "âĢĻ.ĊĊ": 33814,
  "Lic": 42800,
  "Ġhinge": 81615,
  "chem": 14637,
  "Boy": 93160,
  "382": 21899,
  "endforeach": 122655,
  "Ġpaternal": 76430,
  "ĠKD": 93632,
  "activ": 52254,
  "ĠWheat": 71856,
  "Ġvel": 8285,
  "ĠrÃ¨gles": 121930,
  "argest": 43101,
  "ĠIndic": 62846,
  "foundland": 91196,
  "æĦĪåĬł": 107580,
  "è§ĦèĮĥçļĦ": 82767,
  "Ġorden": 43557,
  "ç²īçµ²": 102454,
  "æī¹åĩĨ": 17350,
  "Ġdisplays": 22060,
  "Ġalbum": 14143,
  "ziej": 50848,
  "ĠTargets": 109018,
  "ĠShak": 92845,
  "ç©¿èĳĹ": 100093,
  "akar": 57755,
  "æŀģåħ¶": 28222,
  "Ġagg": 112419,
  "éĿŀå¸¸çļĦ": 36796,
  ")âĢĶâĢĶ": 104231,
  "Ġpolymerase": 56417,
  "æĮĩçĤ¹": 70808,
  "Ġwhats": 127474,
  "Ġpagan": 78286,
  "Ġcomparator": 88543,
  "ĠOfficial": 36294,
  "æİ¢æµĭ": 42195,
  "Ġbois": 84825,
  "processing": 52448,
  "ï¼ģ#": 67749,
  "Ġsurfactant": 85430,
  "ername": 13109,
  "Ġreluctance": 80187,
  "çİ©": 4672,
  "ĠâĢ¦,": 78061,
  "ĠPG": 47364,
  "ĠLeib": 73564,
  "ĠÐ¾ÑĢÐ³Ð°Ð½Ð¸Ð·Ð°ÑĨÐ¸Ð¸": 58225,
  "à¸§à¸´à¸Ī": 72142,
  "Ġtherapy": 8444,
  "Ġmuzzle": 122250,
  "ĠsarÃł": 73316,
  "&-": 93581,
  "ĠOH": 31978,
  "å®ŀæĸ½åĬŀæ³ķ": 123903,
  "çĶµåı°": 59101,
  "æľĢç»ĪçļĦ": 91149,
  ")a": 65342,
  "ÑĩÐµÐ½Ð¾": 106277,
  "çĪ±çļĦ": 14571,
  "Objective": 53192,
  "ĠEll": 14499,
  "å¥¹åľ¨": 29912,
  "åľ¨äº¬": 113554,
  "loat": 33330,
  "Ġmodulates": 123467,
  "åĻ©": 57391,
  "èĢĮå½¢æĪĲ": 119220,
  "Ã¯": 16709,
  "Output": 17797,
  "Ġmatang": 43025,
  "rition": 10019,
  "çĨŁäºº": 89165,
  "ous": 684,
  "Ġstalk": 66088,
  "ĠHeil": 67435,
  "æĺ¾èĢĮæĺĵè§ģ": 126558,
  "à¦¿à¦Ĥ": 57842,
  "ĠÅ¡koly": 112551,
  "à§ĭà¦ļ": 107624,
  "ĠFoss": 67764,
  "_H": 17953,
  "ç¤¾ä¿Ŀ": 40602,
  "Ã³ch": 112441,
  "ĠWall": 14543,
  "corn": 53801,
  "Compute": 109268,
  "\"He": 59956,
  "template": 27793,
  "æīĵåĢĴ": 113472,
  "ophile": 97213,
  "Ġhooked": 64269,
  "ĠÐ¿ÑĢÐ¾ÑĨÐµÑģÑģ": 36182,
  "Ġindem": 107193,
  "peri": 120533,
  "failed": 86486,
  "Ġloneliness": 58185,
  "Ġalumn": 38418,
  "å¿«æīĭ": 125106,
  "ÕĿ": 52918,
  "ĠBaum": 73339,
  "çī¹å¾´": 91863,
  "ģáĢ": 76127,
  "ĠÑģÑĤÐµÐ¿": 42759,
  "Ġhelm": 53912,
  "ĠCorm": 113668,
  "-ser": 64875,
  "ĠHunting": 51449,
  "Ð²ÐµÑĢÑģÐ¸ÑĤÐµÑĤ": 61527,
  "Ġworn": 29324,
  "}ĊĊĊ": 22229,
  "æĹ¥çĽĬ": 26546,
  "ĠSpencer": 47787,
  "ĠdefaultValue": 121346,
  "Ġ×ĳ×Ļ": 106285,
  "Ġnominees": 109661,
  "ê³¼íķĻ": 108520,
  "hey": 47493,
  "æĪĳåı¯æĺ¯": 103096,
  "pite": 6356,
  "urt": 6070,
  "è½¬åĮĸæĪĲ": 102303,
  "ĠÃ®n": 29100,
  "pril": 18049,
  "ĠPsalms": 99036,
  "ä¸»å¯¼": 33411,
  "åķĬ": 3266,
  "ðĿĲ´": 51171,
  "curr": 37132,
  "GROUND": 45751,
  "ale": 1590,
  "Egg": 117205,
  "ä¸ºæ°ĳ": 44415,
  "rust": 20756,
  "å¢ŀéķ¿çİĩ": 56422,
  "Ġcollaborating": 68066,
  "ÑĩÐ¸ÑĤÐ°": 22025,
  "Õ¸ÖĤÕ©ÕµÕ¸ÖĤÕ¶Õ¨": 118885,
  "èº²éģ¿": 59663,
  "å¾ĹæĦı": 38684,
  "Ġvistas": 119856,
  "oni": 13102,
  "Ġbekannt": 82860,
  "Training": 70502,
  "Ġsubtypes": 74918,
  "ĠBolog": 72742,
  "Ã¶ffentlicht": 123083,
  "ł×ķ×ª": 30952,
  "103": 6650,
  "Ġrelapse": 70215,
  "å®īä¹Ĳ": 112733,
  "Ġprise": 85025,
  "ä½ıäºĨ": 12634,
  "Ġaudible": 90021,
  "back": 3555,
  "Ã¾": 80782,
  "åĮºåĴĮ": 60380,
  "iland": 75148,
  "+G": 127683,
  "Hab": 80525,
  "ÙĥØ²": 36699,
  "ä»ħä»ħ": 18739,
  "Ġsuffix": 45449,
  "hv": 108988,
  "Ġmetaphysics": 106676,
  "Ġsubsystems": 115704,
  "éľ§": 63395,
  "ĠCarolina": 16646,
  "Ġmischief": 117274,
  "èĤĿèĤ¾": 104642,
  "ä¸ĢéĹ¨": 66392,
  "016": 20800,
  "ìĦ¸": 23509,
  "è¾ĵåĩºçĶµåİĭ": 107710,
  "Ð½Ð°Ð½": 36970,
  "èįĴéĩİ": 118561,
  "Ġkeen": 30687,
  "]-": 30158,
  "erc": 2819,
  "Ġdut": 9746,
  "Ġcontoh": 88173,
  "çŁ¿ä¸ļ": 73378,
  "Ġavert": 116758,
  "Ġsnapped": 50133,
  "æĺ¯æł¹æį®": 56383,
  "å¹³åĿĩæ°´å¹³": 108374,
  "å°ıçĨĬ": 127933,
  "å£¶": 29455,
  "(\"../": 87324,
  "itions": 2318,
  "Ty": 66747,
  "Ġgroep": 99459,
  "_B": 14568,
  "emplos": 98719,
  "ĠÙħØ¹ÙĨ": 102975,
  "çĨ¹": 73326,
  "]:=": 93929,
  "è¡¥åĬ©": 38025,
  "cx": 66965,
  "Ġspectrophot": 117681,
  "/=": 106541,
  "åĺ²è®½": 71162,
  "irical": 18427,
  "Ġfalse": 5062,
  "åıĳè¡¨äºİ": 26123,
  "ä¸Ĭåıĳè¡¨": 109090,
  "æĢ§åŃĲ": 70099,
  "å®ļæľŁ": 17958,
  "æĹĹèĪ°": 71133,
  "iot": 7434,
  "æ²¢": 115830,
  "Ġnothing": 5760,
  "èĢģå¹´äººçļĦ": 106905,
  "Ġplasmon": 123928,
  "æ°´è·¯": 122978,
  "Sports": 65437,
  "(E": 30524,
  "Ġbiotic": 119274,
  "ãĤĴæĮģãģ¤": 115615,
  "<｜place▁holder▁no▁222｜>": 128222,
  "ĠConclusions": 35159,
  "å¿ĥç¥ŀ": 70701,
  "Ġsophistication": 77637,
  "çĪ¸": 6662,
  "Ġinjection": 21585,
  "ë¥": 5396,
  "æĺİäº®çļĦ": 97930,
  "åĩĨç¡®æĬĬæı¡": 119372,
  "enuhi": 124447,
  "Ġmoiety": 113768,
  "Ġembarrass": 29865,
  "atch": 2471,
  "å®¶æĶ¿": 121582,
  "pering": 46590,
  "Ġdummy": 50544,
  "Ġrenaissance": 114190,
  "rebbe": 53908,
  "runner": 94816,
  "_SIZE": 48582,
  "èĥ½å°Ĩ": 94301,
  "incial": 28365,
  "Ø§Ø¦Ùħ": 55992,
  "294": 18894,
  "íĦ´": 92056,
  "å¤§å¤ļæķ°çļĦ": 98366,
  "èµ°è¿Ľ": 20591,
  "æĿ¥å®¾": 124553,
  "Ġendeavors": 61781,
  "éĿ¢çĽ¸": 82816,
  "-site": 38638,
  "ä¾ĨçļĦ": 24661,
  "ÙĪØ±ÛĮ": 31566,
  "Ġpreprocessing": 119432,
  "åħļç»Ħç»ĩçļĦ": 118665,
  "chaft": 15694,
  "Be": 7153,
  "à¸Ĺà¸±à¹Īà¸§à¹Ħà¸Ľ": 111003,
  "åıªä¸įè¿ĩ": 24723,
  "çĶµå½±çļĦ": 117092,
  "ĠSurround": 124716,
  "dzi": 85577,
  "ĠØ§ÙĨØ³Ø§ÙĨ": 64299,
  "docker": 69189,
  "ĠHIP": 72025,
  "itet": 27685,
  "}}{\\": 29211,
  "Ġallocations": 97249,
  "sty": 95337,
  "Ġprzedstaw": 78361,
  "Ġêµ¬ì¡°": 99820,
  "ĠDON": 74524,
  "åıĺå¤§": 83753,
  "Ġmatches": 18445,
  "ĠRupert": 108682,
  "Mm": 113427,
  "è¦ģé«ĺ": 112334,
  "Ġpresso": 91387,
  "Ġmr": 67914,
  "åıªæīĭ": 82831,
  "Ġprovinces": 38973,
  "national": 39936,
  "Ð»ÐµÐºÑĤÑĢÐ¾": 105499,
  "Ġvaluable": 11007,
  "éĺ²çº¿": 54858,
  "culture": 68412,
  "atus": 4453,
  "valuate": 71990,
  "æĪĺä¸Ń": 99629,
  "Ġagreeing": 68956,
  "ĠØ¨ÙĪÙĦ": 115974,
  "Ġteaspoons": 63001,
  "ĠLabs": 64732,
  "ĠparseInt": 87148,
  "Ġmaker": 41411,
  "å¯Ĥå¯ŀ": 44083,
  "Ġstructurally": 85474,
  "Ġadjud": 63663,
  "åıĳçİ°éĹ®é¢ĺ": 66929,
  "ëħĢ": 95821,
  "uca": 45376,
  "osen": 9012,
  "Ġkhusus": 83325,
  "åı¯ç¬ĳ": 76384,
  "éĤ£æ¨£": 78282,
  "ðĿ": 3128,
  "ä½İä¸ĭå¤´": 90469,
  "ĠAutumn": 67901,
  "çļĦéĤ£æł·": 57637,
  "pless": 35302,
  "Ġàªµ": 84432,
  "Ġsouthwestern": 87962,
  "Ġanswering": 37298,
  "Header": 23154,
  "ĠJoan": 43831,
  "<｜place▁holder▁no▁614｜>": 128614,
  "è¡¨æĢģ": 77323,
  "irc": 2469,
  "atik": 40667,
  "ĠÑģÑĢÐµÐ´ÑļÐ¸Ð¼": 126759,
  "åľ°åĲį": 78385,
  "ĠAbel": 75011,
  "illage": 77243,
  ".tar": 91776,
  "Ġaspirations": 44537,
  "annels": 13492,
  "Ġscheme": 13120,
  "Ġpedestrian": 65700,
  "ĠLeicester": 80228,
  "ĠProperty": 23188,
  "ĠCretaceous": 93159,
  "ancock": 89058,
  "Ġdropout": 84603,
  "ä¼¤æĦŁ": 104292,
  "çĶŁäº§æĸ¹å¼ı": 122160,
  "enture": 69309,
  "ORT": 15930,
  "eller": 10033,
  "Ġnephews": 112312,
  "Ġdemean": 79819,
  "ĠREQU": 68679,
  "ĠÂł": 13714,
  "æĹ¶èĢĮ": 61392,
  "æŁĳ": 65071,
  "Ġoverweight": 52147,
  "Ġning": 36347,
  "Ġlad": 56513,
  "ĠLaz": 92792,
  "ĠØ¹ÙĦÙĪÙħ": 87644,
  "è¿ŀåĲĮ": 79272,
  "åľ¨åĲİéĿ¢": 117226,
  "ĠSpa": 61046,
  "ä¾¿æĬĬ": 120760,
  "æľįåĬ¡ç«Ļ": 107826,
  "rees": 7465,
  "åħ¥åŃ¦": 39472,
  "åĲ¬ä»ĸ": 118643,
  "ĠDELETE": 85339,
  "åĪ°åĮ»éĻ¢": 94860,
  "Ġras": 53408,
  "subscriptðĿĳ": 25433,
  "Ġdentistry": 111169,
  "ĠExtension": 45015,
  "å¾ģæĪĺ": 120381,
  "Ġgrocery": 39323,
  "ãĤįãģĨ": 52650,
  "åħħè¶³çļĦ": 69505,
  "_thread": 92258,
  "Ð±Ð¾Ð²": 102344,
  "Ø³ÙĬ": 34435,
  "ĠÙħØ²": 88772,
  "ĠPlanets": 122835,
  "Ġmidfielder": 87223,
  "éĽĦå¿ĥ": 119657,
  "åĵģåĳ³": 60425,
  "ÙĥØ§ÙĨ": 20099,
  "Ã´mes": 102422,
  "Uri": 81667,
  "ĠÑĥÐ´Ð¾Ð²": 82743,
  "ĠÐ½ÐµÐ²Ð¾Ð·Ð¼Ð¾Ð¶Ð½Ð¾": 122587,
  "omorphic": 49690,
  "ä¸īéĴ±": 124083,
  "å¾ª": 8529,
  "èµ«": 15601,
  "èĤĮèĤ¤": 42330,
  "åıĳæī¬": 41145,
  "Trans": 9205,
  "Ġperpetrator": 127573,
  "Ġsubsection": 38856,
  "skill": 90450,
  "database": 63979,
  "ĠParticipant": 83893,
  "è¦ģè¿Ľä¸ĢæŃ¥": 92483,
  "Tri": 40094,
  "æĦŁåĬ¨": 26100,
  "ĠÐ¾Ð±ÑĢÐ°": 24047,
  "<bits": 91068,
  "Ġverbal": 27013,
  "æ°ĶçĽ¸": 126772,
  "Ġtechnologically": 124368,
  "Ġcolors": 11273,
  "æŀĹåŃĲ": 93706,
  "Ġamplitudes": 85341,
  "æļĸåĴĮ": 111767,
  "åģļåĪ°çļĦ": 94453,
  "áĥĿáĥ": 21985,
  "åİĤéķ¿": 74950,
  "çĬĢ": 50637,
  "ĠDive": 94133,
  "ĠEnjoy": 41859,
  "à®¾à®°à¯į": 80559,
  "vertis": 11413,
  "ere": 717,
  "äº¤æīĭ": 103468,
  "Ġà¸¨": 82732,
  "Ġ---": 11569,
  "ĠÐ¤Ð¸": 74056,
  "iya": 24356,
  "ĠMm": 34175,
  "Ġ×ŀ×¡": 45133,
  "ĠSapp": 96806,
  "ĠAmbient": 92766,
  "ĠCTS": 84260,
  "åİŁåĽłæĺ¯": 40256,
  "Ġreboot": 107654,
  "Ġincompetent": 111457,
  "éĩ": 485,
  "Ġincom": 19947,
  "æľ¬è¯¥": 122502,
  "ĠLibyan": 125308,
  "omyc": 64829,
  "ĠMotivation": 76176,
  "Ġtyl": 41101,
  "Techn": 38759,
  "Ð´Ð°Ð¼Ð¸": 125911,
  "ãĤ±ãĥ¼ãĤ·ãĥ§ãĥ³": 120720,
  "éĤĦèĥ½": 69061,
  "ē": 210,
  "èª¬æĺİ": 54933,
  "ookup": 91607,
  "ĠÑģÐ¸Ð¼": 57977,
  "äººåĲį": 96920,
  "ç´§ç´§": 24696,
  "interpret": 46159,
  "×ľ×ĵ": 66960,
  "leri": 91948,
  "Ġnow": 1928,
  "ĠVelocity": 64100,
  "Jobs": 82172,
  "-patient": 123235,
  "åĲĪæł¼": 17263,
  "ä»»çĶ±": 77131,
  "ä¸ºæĤ¨": 48289,
  "ĠRahul": 119127,
  "Ġmanure": 67366,
  "æŁ¥åĩº": 92485,
  "ĠCountry": 19136,
  "ä¹ĭæľ¬": 87888,
  "Ġstrawberries": 70802,
  "ĠJH": 67039,
  "Ġfire": 5902,
  "ä¸Ģå¤©çļĦ": 88847,
  "Ġloudly": 59143,
  "è·¨åĽ½": 53170,
  "à¤¾à¤ĸ": 86370,
  "Ø§ÙĨØ§": 78051,
  "Ġaveraged": 46562,
  "æİ¥éĢļ": 67766,
  "å¼ĢæĮĸ": 79045,
  "çĤĶ": 125606,
  "-covered": 83943,
  "ĠEmbry": 107673,
  "å®": 358,
  "Thought": 81753,
  "erah": 53225,
  "Ġabnormalities": 41293,
  "_sort": 61961,
  "ATO": 70300,
  "æĩ¸": 75456,
  "Op": 21440,
  ".active": 99764,
  "vene": 113636,
  "Ġpreach": 72179,
  "Ġministries": 84291,
  "æıĲåĪ°çļĦ": 55753,
  "ilus": 50501,
  "éĥ½åįģåĪĨ": 114375,
  "å¾ģåħµ": 125137,
  "ĠHunt": 35702,
  "è¨Ńç«ĭ": 116240,
  "ĠProvincial": 69242,
  "âĬĹ": 117948,
  "Ã¤s": 26311,
  "çĹħæ°Ĺ": 99854,
  "Ġovershadow": 97859,
  "ä»ª": 7318,
  "HOW": 102888,
  "ĠnaÃ¯ve": 112752,
  "ĠHahn": 100303,
  "æ±īæĹı": 59255,
  "leans": 35782,
  "ĠGrow": 60690,
  "ury": 2965,
  ".Use": 67057,
  "ĠMidnight": 104659,
  "ĠDie": 8297,
  "adir": 88926,
  "æ¶Įåħ¥": 102360,
  "Ġarchitect": 9613,
  "encia": 10522,
  "é©¾è½¦": 87201,
  "Ġunprepared": 126937,
  "Ġunavoidable": 90190,
  "ipelago": 84419,
  "erget": 32345,
  "ographical": 17521,
  "Ġlawns": 121353,
  "å½ĵçĦ¶äºĨ": 81804,
  "ĠEyes": 61341,
  "ìĿĦ": 4905,
  "Vietnamese": 88179,
  "Ġintention": 17687,
  "åħ¸ç¤¼": 55802,
  "ä¸ļç»©": 23191,
  "ĠVenet": 96133,
  "Ġlymphoid": 122562,
  "Ġstreaming": 28729,
  "è¢Ńåĩ»": 44320,
  "Income": 80480,
  "çļĦä½¿çĶ¨": 25413,
  "Ġepigenetic": 87876,
  "mlich": 127996,
  "ubuntu": 97496,
  "è·ĳæĿ¥": 104819,
  "à®ļà¯įà®ļ": 126832,
  "çī¹æĦı": 40464,
  "urance": 6175,
  "åĮĹæ´ĭ": 110436,
  "dater": 85702,
  "sein": 55242,
  "seud": 21912,
  "åĨĽèĪ°": 120654,
  "åīįéĿ¢çļĦ": 46008,
  "sta": 22762,
  "ĠNK": 53382,
  "ĠSoci": 25925,
  "Ġendot": 35849,
  "ĠFinds": 118817,
  "ä½ķçŃī": 116990,
  "aturday": 9133,
  "Ġbero": 127615,
  "Ġê²½ìļ°": 35736,
  "äºĨä¸Ģåľº": 48467,
  "çī©æĸĻ": 50253,
  "rez": 21979,
  "Ġfonte": 99819,
  "IG": 4730,
  "Ġgems": 71842,
  "çĸ¯": 16857,
  "ĠÎµ": 7972,
  "éĺħåİĨ": 107998,
  "Measuring": 126738,
  "å¤¸å¼ł": 46547,
  "ĠGarner": 121252,
  "Ġ./": 44401,
  "urar": 81444,
  "enges": 27141,
  "Ġambas": 121638,
  "Ġdiscussion": 9162,
  "Ä±nÄ±": 76299,
  "Ġtast": 106168,
  "Ġolives": 105471,
  "èĿ": 10535,
  "ç«¯åı£": 44500,
  "çĲ³çĲħ": 119259,
  "KING": 104531,
  "ĠProtein": 32823,
  "æĪĲåĬŁåľ°": 71296,
  "è°ģè¯´": 122619,
  "ÑĤÐµÑħ": 86116,
  "ĠfÃ¡cil": 67650,
  "æİ¨è¿Ľ": 8127,
  "Tile": 89249,
  "Ġhydrophobic": 67347,
  "æĥ³æ³ķ": 13779,
  "-ox": 57219,
  "Ġeigentlich": 121602,
  "perhaps": 68874,
  "ĠMetabolic": 91685,
  "à§ĩà¦¤à§įà¦°": 82869,
  "Bol": 87752,
  "è¡Ĺä¸Ĭ": 43638,
  "resso": 60593,
  "arr": 3570,
  "ĠsituaÃ§Ã£o": 105289,
  "ì§Ģë¥¼": 84666,
  "Ġfort": 10989,
  "Ġprocent": 73050,
  "Ġà¦¸à¦¾à¦§à¦¾à¦°à¦£": 116712,
  "ĠprotecciÃ³n": 108245,
  "Ġparts": 5949,
  "ĠÐ·ÐµÐ¼Ð»Ð¸": 109291,
  "Ġclave": 95449,
  "Ġscanf": 31741,
  "Ġrespecto": 70629,
  "Ġcompulsory": 61110,
  "Ġwoven": 56745,
  "ĠWV": 120304,
  "-w": 4586,
  "çĦ¶å¤§": 58866,
  "è®ĬåĮĸ": 53370,
  "Ġá": 8751,
  "åı¯åĨįçĶŁèĥ½æºĲ": 103656,
  "Ġnanoc": 86471,
  "fang": 55834,
  "Ġwhatever": 11782,
  "Ġdan": 4303,
  "());ĊĊ": 31211,
  "åĲĦä½į": 18594,
  "ASCADE": 87100,
  "Ġdigits": 10923,
  "OURCE": 88237,
  "Ġemployers": 24125,
  "à¦Ľà§ĩ": 46749,
  "pok": 76843,
  "@property": 52889,
  "Ġapplicable": 14996,
  "Ġdependent": 14898,
  "ĠSisters": 75572,
  "Ø§Ø¨Ø©": 31280,
  "uve": 58821,
  "Ð¾Ð´Ð¸": 4430,
  "ĠEaton": 113979,
  "repo": 85360,
  "{}\\": 116577,
  "Ġholdings": 64098,
  "tyle": 117560,
  "âĹĭâĹĭ": 87104,
  "raut": 106812,
  "Ġpray": 9143,
  "ç²īæľ«": 56650,
  "-Fran": 96619,
  "æĤħ": 75302,
  "*)": 32778,
  "ĠforÃ§a": 94204,
  "ilm": 34763,
  "Ġrider": 59132,
  "ä¸ĭåįĬ": 57436,
  "ĠHJ": 98231,
  "icare": 110395,
  "æ°´çĶŁ": 115174,
  "Ġnoct": 69295,
  "dependent": 102545,
  ".Min": 99900,
  "ĠÑĤÐ°ÐºÐ¾Ð¼": 124041,
  "('');Ċ": 126641,
  ".util": 9953,
  "âĢĿãĢĤĊĊ": 11177,
  "Ġexceeded": 45630,
  "å°½éĩıä¸įè¦ģ": 116088,
  "éĻĲåĪ¶": 11113,
  "å¹¾åĪĨ": 114329,
  "Ð²ÑĢÐ°": 36400,
  "Ġbamboo": 60377,
  "ĠÑģÐ¾Ñģ": 55376,
  "ĠBurk": 69748,
  "\\({}_{": 9696,
  "ĠÑĢÐµÐ»Ð¸": 67426,
  "çĻ½è¡£": 58828,
  "Ġkadaghan": 56887,
  "-unit": 86957,
  "åĬłæģ¯": 83050,
  "åºĶå¯¹": 18258,
  "412": 20982,
  "ausea": 43864,
  "å°±åĮ»": 61060,
  "Ġperiodic": 27431,
  "å°ıäºĭ": 45019,
  "×ŀ×¡×¤×¨": 106400,
  "liw": 87478,
  "Military": 109909,
  "à§ĩà¦¸": 50882,
  "æ²¡å¤ļä¹ħ": 84470,
  "ĠLETTER": 116230,
  "@g": 37398,
  "Guess": 111857,
  "Ġoverlay": 80634,
  "×Ļ×ĵ": 14625,
  ".catalogueoflife": 36461,
  "è¿ĻäºĽéĥ½": 103939,
  "ically": 1875,
  "Ġmum": 57312,
  "ç¬Ķä¸ĭ": 113438,
  "ĠFurniture": 93490,
  "Ġstore": 7580,
  "ĠStructural": 44449,
  "Ġbureaucracy": 74889,
  "ĠNichols": 88988,
  "Ġpositions": 11788,
  "creen": 13592,
  "Ġsait": 112288,
  "ĠInnov": 20652,
  "Ġmenggunakan": 43154,
  "ĠSOL": 41880,
  "Ø¯ÙĬØ¯": 25005,
  "Ġprick": 92619,
  "ĠEssential": 43133,
  "åį": 453,
  "ĠBrewer": 106083,
  ")}\\)": 90094,
  "à´¾à´¯": 98255,
  "æ³¨": 2139,
  "ĠÙĩÙĪØ§": 54078,
  "Ġcommercial": 9920,
  "({'": 111146,
  "ĠÙĬØ¬": 72028,
  "Ġcoined": 72218,
  "Ġplotting": 70104,
  "Starting": 55789,
  "ĠTwe": 121652,
  "èĢĮæĿ¥": 26774,
  "å¨ĺå®¶": 93975,
  "è´£ä»»äºº": 78515,
  "Ġstage": 6632,
  "åĸīåĴĻ": 68293,
  "rizz": 45508,
  "æľīåĬŁ": 102839,
  "ĠAy": 27626,
  "èµ·æºĲäºİ": 91200,
  "VS": 35879,
  "é¡ºæīĭ": 82699,
  "Ġbeginnings": 57807,
  "æīįæĻº": 108332,
  "Ġsentencing": 64868,
  "Ġvigorously": 81682,
  "ê°Ħ": 21104,
  "Ġgef": 36298,
  "itated": 28178,
  "ĠPreface": 105545,
  "è¿ĺæľīçĤ¹": 102069,
  "è¾«": 79944,
  "çļ±çľī": 50497,
  "Ġgospel": 35085,
  "éĢļåĳĬ": 79206,
  "Ð²Ð¾": 4416,
  "å±ķåĩº": 91228,
  "Ġsim": 1566,
  "Ġmisfortune": 109867,
  "åĽ¾æ¡Ī": 34278,
  "necessarily": 90933,
  "Ø¬Ø§": 60843,
  "ustomer": 13341,
  "Ġinjunction": 72075,
  "ĠÙħÛĮØ´ÙĪÙĨØ¯": 106715,
  "ĠBioinformatics": 108525,
  "ĠPrepare": 43035,
  "/index": 34725,
  "ĠPetit": 101579,
  "ĠApparently": 54836,
  "ivered": 63090,
  "Ġik": 16852,
  "MMMMMMMMMMMMMMMMMMMMMMMMMMMMMMMMMMMMMMMMMMMMMMMMMMMMMMMMMMMMMMMM": 102872,
  "haps": 6435,
  "æł·æĿ¿": 87314,
  "iksi": 40867,
  "Ġslept": 45952,
  "Ġkilobytes": 89438,
  "Ġstories": 8331,
  "æĲºæīĭ": 45731,
  "ĠBrace": 118414,
  "æıĲä¾ĽçļĦ": 23611,
  "ĠEuropa": 31664,
  "Ġwrongdoing": 112296,
  "ĠEssen": 120678,
  "Ġsehat": 104103,
  "356": 20512,
  "(results": 124470,
  "ĠIsabelle": 119324,
  "Ġsala": 89177,
  "Ġsugarcane": 122167,
  "å¤§èĩ£": 37417,
  "Ġtransmits": 81393,
  "Giya": 56957,
  ".es": 73620,
  "Ġacrylic": 75023,
  "ĠrÃ©el": 107199,
  "Ġsilver": 16975,
  "ĠFinish": 76825,
  "Ġfecal": 96325,
  "ĠÙħØ§ÙĦÛĮ": 118640,
  "æĶ¿çŃĸæĢ§": 117539,
  "Ġdesert": 21870,
  "ĠRel": 5731,
  "Install": 64177,
  "à¥ĩà¤¤": 93396,
  "ĠÚ©Ø§Ø±": 21688,
  "ä¸įå¥½çļĦ": 43241,
  "ografic": 89908,
  "Ġrouter": 28333,
  "Ġ''.": 118675,
  "-start": 56097,
  "ĠIEL": 87113,
  "Ġtrump": 49430,
  "Ġ%)": 63737,
  "Ġpratique": 76327,
  "åŃĺåľ¨çĿĢ": 30660,
  "ur": 346,
  "Ġuploaded": 51532,
  "Ġtraits": 20944,
  "éłĤ": 29505,
  "Ġdira": 69402,
  "çĽĹçªĥ": 57327,
  "Ġstabil": 18745,
  "bereich": 90033,
  "Ġconcrete": 15360,
  "ä¸Ńä¹Ł": 50206,
  "Ġaccommodations": 56860,
  "åĪĴçº¿": 109458,
  "Ġfamili": 53577,
  "-Geiger": 50720,
  "å¹´æĺ¯": 88909,
  "uhÃł": 90364,
  "ÏĦÎ¹ÎºÎ®": 38374,
  "ĠCharges": 119262,
  "Ġzien": 59705,
  "rost": 22125,
  "cones": 123508,
  "Ġprimi": 96661,
  "Ġplateau": 62256,
  "Ġeighty": 15274,
  "ĠÐ½ÐµÐ¾Ð±ÑħÐ¾Ð´Ð¸Ð¼Ð¾ÑģÑĤÐ¸": 108641,
  ")ãĢĤĊ": 81532,
  "å¤©ä¸Ĭ": 52409,
  "Rob": 35936,
  "ä¸įè¿ĩä»ĸ": 97731,
  "æķ°æį®å¤ĦçĲĨ": 90486,
  "ĠReviewer": 123858,
  "å¾ĹçŁ¥": 26689,
  ",and": 40280,
  "Ġdefiant": 112357,
  "<｜place▁holder▁no▁584｜>": 128584,
  "Ġinstances": 18951,
  "Ġnail": 42367,
  "iki": 10234,
  "Ġneutrophil": 116831,
  "ç¼ĵåĨ²åĮº": 108811,
  "antam": 126248,
  "ĠNorthwest": 46089,
  "Ġ@": 2390,
  "è¿ĻäºĽäºº": 32539,
  "ÎµÎ¯Î¿": 46789,
  "ĠRent": 59574,
  "ĠAshe": 117142,
  "è¯Ĩ": 2144,
  "<｜place▁holder▁no▁758｜>": 128758,
  "Ðĺ": 8535,
  "ĠStarr": 112222,
  "Ø¦": 9991,
  "Ã¨ne": 34345,
  "Ġstessa": 87744,
  "Ġnoun": 15454,
  "æ´ĽæĿī": 80010,
  "Ġsamme": 127401,
  "earing": 15423,
  "Ġhospitalized": 70902,
  "ĠEnsemble": 101975,
  "HK": 64784,
  "ä¸Ńè¥¿åĮ»": 111281,
  "Ġrun": 2632,
  ":@\"": 45913,
  "å³¶": 27077,
  "Ġrue": 66622,
  ")âĨĴ": 98478,
  "Ġsmells": 61810,
  "èĢĥçĶŁçļĦ": 127742,
  "çī©èµĦ": 21290,
  "=S": 79095,
  "lia": 17706,
  "ĠVitt": 108784,
  "æģ¶éŃĶ": 57829,
  "Ġpineapple": 91910,
  "^\\": 43976,
  "Ġcertific": 37558,
  "ĠÙĪØ§Ø³": 114023,
  "å¹³åı°": 7033,
  "Ġanalyt": 15560,
  "#$": 125463,
  "Ġinserting": 62965,
  "Ġ%": 3104,
  "ê·¼": 53665,
  "door": 16473,
  "ĠHof": 55229,
  "ongo": 28127,
  "Ġpant": 31930,
  "Share": 24908,
  "ĠLiz": 43700,
  "å¸¦ç»Ļ": 57169,
  "çľģæĶ¿åºľ": 54525,
  "ĠWinter": 23631,
  "çĲĨæĥ³çļĦ": 51461,
  "Ġviable": 32204,
  "Ġjuxtap": 79720,
  "Ġkult": 58019,
  "æĪĸä¸ªäºº": 121405,
  "Ġedges": 17714,
  "Ġmuncul": 91717,
  "ĠØ£Ø«ÙĨØ§Ø¡": 90416,
  "Ġsoothing": 68114,
  "ĠÐ±ÐµÐ»": 103823,
  "Flu": 83107,
  "ìĻ": 12763,
  "à¹Ĥà¸Ħà¸£à¸ĩ": 66835,
  "çİ¯å¢ĥåĴĮ": 59937,
  "Ġdicho": 97252,
  "å·¥ä½ľæķĪçİĩ": 66375,
  "Ġfeatured": 24369,
  "Ġlp": 116916,
  "å¹´åĪ°": 68041,
  "379": 22329,
  "æĥ¯æĢ§": 66819,
  "åĮĸçĺĢ": 121201,
  "ĠthÃłnh": 111041,
  "Ġcrumbs": 105802,
  "ç»¼åĲĪèĢĥèĻĳ": 96184,
  "reply": 69978,
  "ç¹©": 111046,
  "Ø³Ø§Øª": 78028,
  "hero": 31219,
  "ĠClass": 6153,
  "Ġintelect": 110072,
  "åĨ¢": 91246,
  "Ġvrai": 108061,
  "Ġnamn": 113577,
  "à¦¿à¦£": 92538,
  "ilot": 54058,
  "ĠdÃ©s": 36500,
  "åºķèķ´": 71485,
  "ĠRoh": 44478,
  "acteria": 115124,
  "à¤¾à¤¤": 29025,
  "áº¯c": 108683,
  "ĠSymposium": 44463,
  "Physics": 50382,
  "ç»Ļå°ı": 113222,
  "Ġexpenses": 15815,
  "ä»ĸä»¬è¯´": 98283,
  "çļĦåŁºæľ¬": 13491,
  "ĠkW": 51207,
  "Ó": 146,
  "Ta": 39919,
  ".]ĊĊ": 40329,
  "Beck": 105768,
  "rich": 11682,
  "ÏĦÏīÎ½": 85253,
  "EDA": 109254,
  "Ġlem": 27737,
  "Ġ×Ķ×ŀ×¢": 93339,
  "entence": 51015,
  "å¤ī": 24302,
  "à¹Ħà¸¡à¹ī": 56815,
  "Ġet": 1231,
  "angement": 58319,
  "çĻ": 1046,
  "idences": 62460,
  "ç¼ķ": 39998,
  "æİ¥éĢģ": 100089,
  "Ġvirtuous": 93042,
  "Ġesencial": 110915,
  "TG": 50608,
  "Ã©rÃ©e": 109285,
  "ĠTruman": 77035,
  "âĪ«": 36705,
  "Trust": 59584,
  "ĠnÃ¡sled": 91541,
  "IVER": 78034,
  "mathcal": 11838,
  "Ġcivilizations": 66441,
  "Ġ×Ĳ×ĵ": 100736,
  "Ġsik": 88515,
  "Ġrapid": 8365,
  "Ġkissed": 50730,
  "icolor": 90108,
  "374": 21237,
  "ÑĤÐ¸Ð½": 39362,
  "Tips": 77675,
  "ÙħØ±Ø§Ùĩ": 79585,
  "ocortic": 75290,
  "èµĦäº§éĺ¶çº§": 36413,
  "æµģåĬ¨èµĦäº§": 126652,
  "sole": 5963,
  "åħħå½ĵ": 65741,
  "ĠInvention": 108834,
  "å°ĨæĮģç»Ń": 98485,
  "Ġinitialize": 47460,
  "ubro": 120916,
  "ĠEsta": 50552,
  "å¤ĸäºº": 55573,
  "ä¸ĩåĲį": 101342,
  "ĠMinim": 77822,
  "706": 27923,
  "veland": 37570,
  "Ġellipse": 90532,
  "ĵ×Ļ": 37818,
  "yak": 81291,
  "ĠnguyÃªn": 115549,
  "%C": 104175,
  "Ġgruppo": 91833,
  "_line": 43282,
  "Plus": 37918,
  "ĠCorrelation": 66264,
  "Ġtranslocation": 92488,
  "ĠÐ·Ð°Ð±Ð¾Ð»ÐµÐ²Ð°Ð½Ð¸Ð¹": 93169,
  "æĮ¯åħ´": 25172,
  "ä¹ĭä¸Ń": 9393,
  "Ø³ÙĨ": 37696,
  "ĠBound": 45711,
  "Ð½Ð°ÑĩÐ°": 50941,
  "ĠÐ¿ÑĢÐ¾ÑģÑĤÑĢÐ°Ð½": 61324,
  "å°Ĩä½¿": 111791,
  "Aj": 68515,
  "Ð½Ð¸ÐºÐµ": 77413,
  "ä¹Łä¸įæľĥ": 76412,
  "Ġseven": 6170,
  "ĠìľĦíķ´ìĦľ": 124545,
  "<Product": 103462,
  "ĠCID": 120650,
  "ä¸īä¸ĸ": 117788,
  "Ð´ÐºÐ¾": 57301,
  "å¤ªéĺ³": 13051,
  "çĶ¨èį¯": 33032,
  "Ð¾Ð»Ð°Ð³Ð°": 103730,
  "competitive": 100142,
  "Ġhomens": 111291,
  "çŁ¥çļĦ": 49546,
  "ĠPleistocene": 113272,
  "é«ĺåĪĨåŃĲ": 99714,
  "usc": 29988,
  "èŃ¦æĪĴ": 80280,
  "observation": 111038,
  "Ġsuas": 40398,
  "Spark": 119683,
  "Ġimpurities": 71020,
  "äº²åıĭ": 84270,
  "Ġcertificates": 46657,
  "ĠAmend": 84804,
  "ies": 517,
  "cup": 30521,
  "à¹Ģà¸ŀà¸´à¹Īà¸¡": 55213,
  "Technology": 63252,
  "éıĪ": 67237,
  "ÙĩØ§Ùħ": 75524,
  "Ġoffences": 66374,
  "Ġaquest": 70421,
  "Ġaltres": 122111,
  "èİ·å¾ĹäºĨ": 28206,
  "ä¾į": 20352,
  "éĢļçĶ¨çļĦ": 106298,
  "åĪļè¦ģ": 124185,
  "vÄĽt": 80305,
  "-root": 81694,
  "styled": 94776,
  ".string": 34811,
  "Hz": 13670,
  "èĳ": 1991,
  "à¦·à§įà¦Ł": 99082,
  "ITAL": 61917,
  "ä¸ºéĩį": 127301,
  "æĹģéĤĬ": 63274,
  "åģıç§»": 69132,
  "åħ¬äº¤è½¦": 65575,
  "antic": 9002,
  "ierten": 67264,
  "Ġtwins": 49703,
  "ä¸Ģçº§": 27979,
  ".)Ċ": 21960,
  "ented": 19686,
  "åľ¨ä½¿çĶ¨": 45371,
  "Ġchilling": 87421,
  "-J": 13471,
  "Ġ\"\";Ċ": 41385,
  "ĠCONCLUS": 61411,
  "ahn": 25557,
  "))=": 108147,
  "æİ¨çī¹": 127155,
  "Ġdecidedly": 103988,
  "Ġtrigger": 14930,
  "relations": 41032,
  "æĪĳä¸Ģå®ļä¼ļ": 119977,
  "ĠRemedies": 125919,
  "ÐĿÐ«": 93940,
  "awak": 115468,
  "æĢĢçĿĢ": 66672,
  "ĠrÃ³Å¼": 45395,
  "åĭ¤ä¿Ń": 114583,
  "åĲ»": 21673,
  "ĠAure": 88018,
  "jor": 110016,
  "ĠProcurement": 105324,
  "è´©åįĸ": 94413,
  "æĤłéĹ²": 85233,
  ":nil": 112302,
  "orthern": 9766,
  "éĢ®æįķ": 56540,
  "çĪ·çĪ·": 21672,
  "ĠÄĳá»ĵ": 92832,
  "è¯¾ç¨ĭçļĦ": 94033,
  "ĠContents": 22942,
  "Ã¶k": 41648,
  "ĠØ§ÙĦØ´Ø¹": 47617,
  "ĠAccred": 90292,
  "Ġdynasty": 53983,
  "âĢĻãĢĤ": 91381,
  "output": 11030,
  "Ġfiber": 16299,
  "ĠĠĠĠĠĠĠĠĠĠĠĠĠĠĠĠĠĠĠĠĠĠĠĠĠĠĠĠĠĠĠĠĠĠĠĠĠ": 58880,
  "ĠÑĥÐ²ÐµÑĢ": 121322,
  "Ġrecht": 64790,
  "çļĦåīį": 14015,
  "ĠSecurities": 39688,
  "/per": 114981,
  "ĠSimply": 38561,
  "Ġdil": 11965,
  "ĠMin": 3902,
  "ĺ": 249,
  "å½±åĵįåĬĽçļĦ": 94591,
  "ç²¾æ°Ķ": 104962,
  "ĠXVIII": 62883,
  "ÑĢÐ°Ñħ": 62067,
  "Payload": 92033,
  "Ġloans": 19458,
  "ãĥĿ": 31072,
  "ĠÐ¼ÐµÑģÑĤÐ°": 58257,
  "ĠCarlton": 123746,
  "å¤¸": 19977,
  "Ġgrandeur": 85275,
  "amic": 24475,
  "Ġlhs": 125667,
  "Pok": 72945,
  "è´¢åĬ¡çĬ¶åĨµ": 108523,
  "jah": 63798,
  "ÅĤod": 55460,
  "Ġverschillende": 58550,
  "ĠÐ¾ÐºÑĢÐ°": 127319,
  "Comb": 30580,
  "ĠLinked": 26747,
  "Ġseparat": 122054,
  "äºĴéĢļ": 72795,
  "ĠHick": 80189,
  "Pub": 43840,
  "æĹłæĥħ": 56802,
  "ĠReleased": 87689,
  "ìĿĮìĿĦ": 111310,
  "èµĦéĩĳ": 7305,
  "electronic": 79322,
  "åıªçŁ¥éģĵ": 73433,
  "abby": 126413,
  "åı²å¯Ĩæĸ¯": 110353,
  "ĠØ§ÙĦØµ": 14027,
  "vm": 34344,
  "xF": 103201,
  "ĠvÅ¡echn": 91936,
  "Ġnascent": 116238,
  "åģıè§ģ": 79772,
  "ĠÐ´Ð¾ÑĢ": 49878,
  "Ġbiomarkers": 51891,
  "utility": 97770,
  "ultad": 102238,
  "à°¿à°ķ": 84115,
  "ĠPROC": 49991,
  "ĠAW": 51498,
  "æ©": 5174,
  "æ³¢çļĦ": 71620,
  "è¯įçļĦ": 78667,
  "éŁĵ": 30202,
  ".G": 8995,
  "ĠEscherichia": 73720,
  "à¯ģà®®": 77334,
  "ylan": 43342,
  "ŀáĢĬáĢº": 120233,
  "ç«Ļç¨³": 108035,
  "zyÄĩ": 53333,
  "ĠTinipong": 57710,
  "Pacific": 119401,
  "æĪĲä¸ºäºĨ": 26006,
  "igit": 60744,
  "åıĺéĢŁ": 50545,
  "æĿİäºĳ": 106157,
  "fill": 27472,
  "éĩĳèŀįåį±æľº": 85878,
  "åĲīåĪ©": 67517,
  "å¢Ĺ": 47703,
  "è®¢å©ļ": 127719,
  "peak": 61181,
  "eke": 47405,
  "Ġrepresenta": 72775,
  "ç§§": 64841,
  "Ġfortal": 127527,
  "ĠGroÃŁ": 77974,
  "çļĦä¸Ģæł·": 77899,
  "char": 7526,
  "Ġconsec": 18162,
  "ÙģØ§Ø¸": 100957,
  "Ġreunion": 83020,
  "nexpected": 86060,
  "æł¹æľ¬æĹłæ³ķ": 92152,
  "Ġentren": 110526,
  "das": 35755,
  "éĥ¸": 93448,
  "ĠProjekt": 62563,
  "ute": 1782,
  "à§Ī": 30011,
  "Ġvie": 19049,
  "andidates": 48029,
  "ĠÑĤÐ°": 6079,
  "å®¶éĩĮçļĦ": 52273,
  "éĽ¢": 13274,
  "ĠGK": 103140,
  "ĠSent": 20605,
  "ãģĦãģ¦ãģĦãĤĭ": 107430,
  "ä»·ä½į": 82889,
  "å·¥ä½ľéĩı": 90319,
  "Ġdresses": 66402,
  "å®ļæł¼": 108688,
  "Ġproposing": 65425,
  "ĠProfessor": 15494,
  "à®¿à®¤": 60858,
  "åİ»éĻ¤": 40674,
  "Ġencountering": 93203,
  "èĸĦèį·": 87458,
  "à¸ªà¹Į": 77245,
  "python": 36490,
  "Ġà¦¸": 4783,
  "æķĻæĿĲ": 19098,
  "ĠWarming": 127930,
  "ĠRegions": 65948,
  "ĠDAC": 102560,
  "ĠMere": 82456,
  "(U": 50935,
  "ä¸Ģä¸ĭ": 4915,
  "åħħåĪĨ": 7474,
  "Ġcu": 6087,
  "Ġseorang": 59809,
  "Thus": 24444,
  "Ġsklearn": 63018,
  "æĺİçĽ®": 115226,
  "Ġprodotti": 103864,
  "Ġembodies": 78284,
  "riend": 10385,
  "Ald": 100602,
  "itzaciÃ³": 99303,
  "Ġattending": 26321,
  "å¾Īå¥½çļĦ": 22084,
  "ĠHerbert": 47463,
  "Ġstunned": 70350,
  "Ġresumes": 109620,
  "Ġdlou": 91788,
  "Ġdecrypt": 105055,
  "cur": 2704,
  "uple": 62735,
  "emarks": 79280,
  "hesive": 124743,
  "ĠØ§ÙĦØ¨ØªÙĩ": 123767,
  "Ġrisco": 88334,
  "Ġpoder": 29554,
  "çĸĻçĺ©": 88490,
  "Ġvelvet": 94614,
  "Ġcopyright": 23539,
  "ERP": 85799,
  "èĤ´": 59814,
  "_details": 90983,
  "åıįæĢĿ": 29159,
  "ĠÐ²Ð¸Ð½": 127543,
  "Î³Î¿": 115602,
  "Ġharming": 117318,
  "ĠCardi": 42418,
  "à³įà²Ł": 89025,
  "èº«åľ¨": 84453,
  "latitude": 120252,
  "Ġspam": 63048,
  "merce": 19629,
  "ĠAgg": 39165,
  "åĲİç«¯": 127197,
  "Ġlassen": 60005,
  "ÑģÑĤÐ°Ñı": 108717,
  "Ġthrottle": 91956,
  "Ġgirls": 12253,
  "åĩºåıĳ": 15160,
  "ĠConsultation": 98796,
  "-et": 75648,
  "ĠÙĤÙĦØ¨": 111717,
  ".App": 27578,
  "Adding": 51166,
  ".In": 20775,
  "åĩłåĪĨ": 37333,
  "ĠØªØºÛĮÛĮØ±": 65687,
  "Ġmistakes": 22327,
  "ĠSegment": 68130,
  "è´·æ¬¾çļĦ": 116825,
  "Green": 25228,
  "çī¹çĤ¹æĺ¯": 56739,
  "ĠScales": 74000,
  "Ġluxury": 30172,
  "Ġoppressive": 89717,
  "iÄĻÄĩ": 118671,
  "assa": 27185,
  "uerite": 125396,
  "åıĭæĥħ": 55938,
  "akut": 68303,
  "è°¢è°¢ä½ł": 69244,
  "Ġfern": 106620,
  "ĠsystÃ©m": 115180,
  "Ú¯Ø²": 108718,
  "ä¸įå°ıå¿ĥ": 45942,
  "ĠPAL": 91077,
  "ĠkÃ¶": 24493,
  "ĠSense": 51712,
  "ÙĬÙĥ": 13188,
  "çº¦ä¸º": 36834,
  "åĤ»äºĨ": 113193,
  "Ġvener": 96143,
  "Ġtransplants": 123041,
  "Ġnotamment": 58590,
  "Ġformer": 7017,
  "èĭ¥å¹²": 21940,
  "Ġinclusivity": 92615,
  "ĠfaÃ§ade": 112054,
  "Ġreactor": 36646,
  "ellus": 109849,
  "Ġloyalty": 31299,
  "åħ«ä¸ª": 62680,
  "Ð¾Ð³ÑĢÐ°Ð¼Ð¼Ð°": 124691,
  "Å¾ÃŃ": 29826,
  "aciones": 12735,
  "äº§åĩº": 49874,
  "èµĦæºĲåħ±äº«": 106282,
  "locking": 69327,
  "çļĦæĥħæĻ¯": 75124,
  "ĠManag": 96527,
  "è¿«": 9993,
  "Ġsend": 8481,
  "atok": 77937,
  "ç²¤æ¸¯æ¾³": 127381,
  "ĠDruck": 86168,
  "âĢĥ": 77469,
  "Ġroy": 109545,
  "æķĻå¸ĪçļĦ": 40782,
  "ĠKos": 32298,
  ">';Ċ": 84705,
  "ĠProcedures": 55652,
  "Ġpizz": 107188,
  "æ·ļ": 55200,
  "ney": 3789,
  "ä¸ĭåŀĤ": 92268,
  "ĠRemember": 20534,
  "ä¸ºé¢ĺ": 113049,
  "åĴĮé«ĺ": 42587,
  "ç§įèįī": 120002,
  "rability": 40297,
  "ØºØ·": 75902,
  "Ġamort": 75920,
  "Ð¾Ð±ÑĢÐ°": 37782,
  "å¹²æİī": 112512,
  "ŀ×": 2100,
  "åŃĹæ¯į": 29156,
  "åĨľèį¯": 48332,
  "sburg": 120797,
  "åįģå¤ļ": 83450,
  "/no": 91306,
  "ĠperiÃ³d": 125985,
  "Ġà¬¸": 127114,
  "æ¶¨åģľ": 71044,
  "Ġwore": 31425,
  "Ġvibrational": 109664,
  ".Act": 106839,
  "ä»Ķç»Ĩ": 17768,
  "ben": 8338,
  "ĠÐ¾ÑĨÐµÐ½": 47208,
  "ĠÑĢÐ°ÑģÐ¿ÑĢÐ¾ÑģÑĤÑĢÐ°Ð½": 61316,
  "Etat": 121477,
  "Ġdeceased": 41635,
  "ÙĪÙĬØ¯": 126226,
  "ÑĢÐ¸ÑģÑĤ": 110814,
  "çĶŁæŃ»": 34914,
  "EFORE": 86025,
  "ä¸Ĭäº¤": 98206,
  "ÑĢÐ°Ðº": 72905,
  "Ġzomb": 65515,
  "ä½ĵçİ°åĩº": 74650,
  "ĠØ§ÙĦØ³Ø¨": 115017,
  "Ġbesoins": 106803,
  "-table": 62358,
  "499": 21772,
  "henden": 109097,
  "ĠVAR": 89671,
  "ĠÐ¿ÑĢÐµ": 10357,
  "ä¸įä¹ħçļĦ": 121966,
  "Ġcontributing": 19876,
  "åįĬå¾Ħä¸º": 118326,
  "amine": 14290,
  "ĠYouth": 28015,
  "ĠcÃ©l": 44279,
  "åĪ«æīŃ": 116098,
  "ÏħÎ½Î±": 47378,
  "ĠReformed": 110772,
  "ĠRich": 8756,
  "Ġspeakers": 23561,
  "<｜place▁holder▁no▁163｜>": 128163,
  "åºĶæł¹æį®": 55055,
  "Ġmuitos": 83621,
  "éª¨éª¼": 51039,
  "ĠsÃŃmbol": 109733,
  "ENTIAL": 96828,
  "éĺ´æŀģ": 94728,
  "çļĦæĿ¡ä»¶ä¸ĭ": 100783,
  "æī£": 10509,
  "Ġcitation": 35748,
  "çĥĥ": 62628,
  "roll": 2686,
  "ĠHelping": 87941,
  "äºĶçĤ¹": 126461,
  "Ġfore": 3274,
  "ï¼īãĢģ": 13968,
  "è¿Ļç§įåģļæ³ķ": 119964,
  "Ġfewer": 18419,
  "Ġremainder": 17347,
  "orexia": 85343,
  "äºīåıĸ": 23224,
  "iotensin": 77949,
  "\\!": 24180,
  "pq": 68674,
  "ĠMeanwhile": 31083,
  "fica": 47035,
  "æĪĳåĨį": 55725,
  "ĠINTEGER": 75917,
  "verb": 22560,
  "å®£ä¼łè´¯å½»": 117659,
  "@section": 72981,
  "LA": 11318,
  "olari": 98023,
  "Ġfearing": 107547,
  "Ġmonument": 33139,
  "DRESS": 84187,
  "Ġassess": 4511,
  "Ġrepay": 61313,
  "åįı": 3650,
  "567": 25601,
  "ayi": 118331,
  "courses": 126059,
  "è¯Ħè®º": 14987,
  "yun": 75662,
  "Ġproble": 2185,
  "ĠØ§ØŃØ³Ø§Ø³": 95282,
  "è¯Ńè¨ĢçļĦ": 62449,
  "çĸ¾æĤ£": 89481,
  "AE": 21854,
  "_obj": 66565,
  "ĠAsc": 48548,
  "Ġadj": 11372,
  "Î¼ÏĢ": 40028,
  "ĠÎ³ÏħÎ½Î±Î¹ÎºÎµÎ¯Î¿": 61233,
  "Õ¡Õº": 71500,
  "ĠNex": 84120,
  "éĩĮéĿ¢": 9726,
  "ĠØªÙĪØ³": 78085,
  "ĠIOC": 116873,
  "Ġtable": 4184,
  "å·¥ç¨ĭéĩı": 77872,
  "-office": 120637,
  "oup": 21042,
  "ä»ĸæĺ¯ä¸ª": 109208,
  "(path": 34333,
  "ĠCloud": 19302,
  "å®Įåħ¨": 5467,
  "<｜place▁holder▁no▁697｜>": 128697,
  "ĠÐ²Ð½Ñĥ": 34323,
  "/include": 115155,
  "ĠKaplan": 69588,
  "éĴĵé±¼": 56806,
  "icism": 34475,
  "Ø«Ø±": 19176,
  "å¹¼åĦ¿åĽŃ": 20136,
  "ĠAIM": 126683,
  "çļĦçģ«": 55470,
  "Ġoccasional": 33176,
  "éİ": 21444,
  "ä»İæĿ¥æ²¡æľī": 40156,
  "GET": 25175,
  "æł¹æį®ä¸įåĲĮ": 126234,
  "typen": 48827,
  "åīįèĢħ": 34625,
  "Ġsynagogue": 92015,
  "oblast": 42902,
  "Ġà¦¬à§Ī": 95560,
  "èģĶè°Ĭ": 103133,
  "Ġtenha": 119771,
  "mg": 14780,
  "ä¿Ŀæļĸ": 71453,
  "æķ°åĴĮ": 62343,
  "Ġdiarr": 38851,
  "ÐŁÑĢÐ¸": 24797,
  "å»ºæ¡£": 113617,
  "æľīéĻĲ": 7074,
  "å±ķå¼ĢäºĨ": 78707,
  "Ġpinch": 58900,
  "Ġcommissioner": 59297,
  "Ã³gicos": 110860,
  "ĠBarcl": 102087,
  "ç³ĸå°¿çĹħæĤ£èĢħ": 114369,
  "Ġresponsable": 90713,
  "Zur": 102926,
  "Ġlottery": 50708,
  "à¹Ħà¸Ĥ": 54324,
  "ĠShadow": 46691,
  "-derived": 37588,
  "ç½ĳçĲĥ": 97312,
  "ç«ĭæĸ¹ç±³": 58721,
  "Ġpancreatic": 46227,
  "<｜place▁holder▁no▁14｜>": 128014,
  "ï¼ŁãĢįĊĊ": 31974,
  "jans": 109640,
  "èĻļæĭŁ": 24627,
  "åŃ¢åŃĲ": 84623,
  "äº¿åĲ¨": 102155,
  "914": 30709,
  "Ġmayor": 19478,
  "Ġbrutality": 95170,
  "Ġtanks": 36062,
  "ìłľ": 12879,
  "hia": 125357,
  "Ġà¦®à¦¾à¦°": 85391,
  "<｜place▁holder▁no▁534｜>": 128534,
  "å®¶äººçļĦ": 75823,
  "Ġfarms": 31914,
  "à´¸": 79878,
  "Ġbelieving": 40239,
  "è§£æ±º": 37409,
  "Ġregularly": 15478,
  "ĠÐ¾ÑĤÐ²ÐµÑĢÑģÑĤÐ¸": 124584,
  "atl": 60581,
  "ĠØ´ÙĪØ¯": 24120,
  "Ġcorridors": 84259,
  "Ġà¦ħà¦ª": 126488,
  "åįķä½įçļĦ": 33620,
  "ĠKrishna": 72133,
  "ĠAlger": 50444,
  ",J": 59905,
  "Ġ/></": 92012,
  "æ¾Ī": 37806,
  "ĠChicago": 13579,
  "Ġadditional": 5974,
  "ÙħÙĩ": 98025,
  "-count": 47072,
  "Ġnever": 3214,
  "à¸łà¸±à¸¢": 84201,
  "èĢĹè´¹": 67370,
  "Ġsalon": 91091,
  "ĠMerriam": 124718,
  "ĠUnlike": 27188,
  "Ġassigned": 14037,
  "ĠÐ¡Ð¾": 43072,
  "tsÃ©g": 113024,
  "Ġcrane": 94016,
  "Ø§Ø·ÙĤ": 73469,
  "ĠĠĠĠĠĠĠĠĠĠĠĠĠ": 6118,
  "<｜place▁holder▁no▁471｜>": 128471,
  "èµĦæł¼": 14826,
  "åĲĪæ³ķçļĦ": 85608,
  "Ġdoch": 49796,
  "ĠConcert": 85143,
  "ĠPlanned": 106299,
  "oviet": 86899,
  "923": 31225,
  "çļĦèģĶç³»": 60608,
  "Ð»ÐµÐ¼": 14089,
  "èĢĮå·²": 15003,
  "æĪĸèĢħæĺ¯": 28802,
  "Ġmetab": 10724,
  "åıªæľīå½ĵ": 101626,
  "trans": 8755,
  "ĠPTSD": 65211,
  "çĪ¬ä¸Ĭ": 96230,
  "decl": 40078,
  "aul": 48966,
  "Ġdebido": 72123,
  "Probably": 94239,
  "rison": 17778,
  "à¸Ĺ": 2817,
  "é¬¼ç¥ŀ": 101063,
  "è§£è¯»": 30862,
  "ĠTeams": 49944,
  "644": 26407,
  "ĠSpeed": 31435,
  "195": 3298,
  "amac": 125382,
  "ĠSAR": 57743,
  "rer": 22047,
  "åħħæ»¡äºĨ": 31596,
  "Ġshielded": 124191,
  "Ġpolype": 64744,
  "ĠBibl": 121380,
  "ĠTrophy": 83274,
  "è®²çļĦ": 59863,
  "Ġexporter": 125582,
  "Ġsexual": 10479,
  "ziel": 45437,
  "Ġrebuild": 53899,
  "ëĨ": 83510,
  "æĹ¶éľĢè¦ģ": 124002,
  "èĢĢçľ¼": 86027,
  "å¹´ãģ®": 91605,
  "scribe": 9541,
  "ÏĥÏĦ": 14519,
  "Ġnauczyci": 107032,
  "Ġupholding": 108666,
  "âľĵ": 98795,
  "çľ¼": 1996,
  "åħ¨å¿ĥåħ¨": 83985,
  "ç§¯éĽª": 97197,
  "ç§»åĬ¨": 11459,
  "æĵ¦": 11777,
  "OUS": 79687,
  "Ġrelationships": 8561,
  "à§įà¦Łà§įà¦°": 66866,
  "Ø²Ø§ÙĦ": 115695,
  "æİ¨å¼Ģ": 56206,
  ".columns": 108390,
  "Ġjulka": 121194,
  "åĳ½": 2326,
  "æ³ķå¾ĭåĪ¶åº¦": 99901,
  "Ġcred": 5588,
  "Ġwag": 61332,
  "Ġbecome": 3644,
  "è¿Ļå¯¹": 35933,
  "liwoÅĽci": 86293,
  "à¹Ĩ": 18152,
  "è®©æĪĳä»¬ä¸Ģèµ·": 90002,
  "é¦Ļèķī": 62691,
  "400": 5126,
  "ĕ": 212,
  "æľīåħ¶ä»ĸ": 127514,
  "Nr": 91211,
  "ä¼ªéĢł": 68470,
  "Ġantipsych": 108619,
  "åĿļåĽº": 72908,
  "åľ¨äºİ": 12352,
  "None": 19906,
  "Ġcurve": 13104,
  "é»ŀäºĨé»ŀéłŃ": 81072,
  "support": 68278,
  "ĠHeader": 43984,
  "åĬł": 1107,
  "çļĦåı¦ä¸Ģ": 72367,
  "è¡·": 25597,
  "ä¾ĥ": 46923,
  "ĠVen": 17047,
  "æĴĲ": 71139,
  "ĠSeparation": 87580,
  "Ã³ng": 66340,
  ".css": 24619,
  "zm": 46417,
  "Ġsinter": 83339,
  "ĠPortfolio": 58629,
  "opot": 52285,
  "Ġalerts": 56676,
  "à¹Ģà¸ĩ": 56061,
  "Ġsumm": 68424,
  "ĠDeliver": 102374,
  "AST": 36118,
  "Ġdropped": 16405,
  "å¤©é¾Ļ": 101948,
  "×ģ": 61805,
  "ÑĨÑĮ": 55418,
  "(on": 111213,
  "Revenue": 109612,
  "(from": 81125,
  "ĠAnderson": 22649,
  "æİ©": 17796,
  "ulsed": 127859,
  "ÙĪÙĦÙĬ": 109421,
  "ĠÐ·Ð°Ð±Ð¾Ð»ÐµÐ²Ð°Ð½Ð¸Ðµ": 124098,
  "ves": 2346,
  "Ġteenager": 51614,
  "ĠDT": 55599,
  "(Date": 126427,
  "èº¯ä½ĵ": 87806,
  "é´»": 82859,
  "Ġplayoffs": 62045,
  "Ġharassment": 45858,
  "ĠÐĿÐ°Ð¿ÑĢÐ¸Ð¼ÐµÑĢ": 73370,
  "åıįèĢĮæĺ¯": 86543,
  "åĽ½æ°ĳæĶ¿åºľ": 110586,
  "ibil": 23381,
  "Ġincluso": 64533,
  "kuuta": 75686,
  "è¿·æģĭ": 126512,
  "<｜place▁holder▁no▁93｜>": 128093,
  "acular": 29187,
  "å·¥ä½ľäºĨ": 94712,
  "ãĢĤãĢĬ": 14879,
  "Ġimpregn": 95737,
  "èĩªåĬ¨é©¾é©¶": 88358,
  "ÑĪÑĤÐ¸": 120146,
  "Stage": 61022,
  "roff": 90128,
  "åĢ©": 36445,
  "Ġpotentials": 47776,
  "Bat": 84692,
  "ĠEn": 2461,
  "â": 161,
  "iau": 45391,
  "ĠSource": 15184,
  "midt": 38019,
  "à´¦": 109877,
  "Ø§Ø¶ÛĮ": 124576,
  "Ġexhibits": 33056,
  "Ġcontrario": 87698,
  "Ġcarrera": 125722,
  ";;": 25074,
  "ĠÐºÐ¾ÑĤÐ¾ÑĢÑĭÐµ": 19389,
  "ocytopenia": 125840,
  "ĠController": 36701,
  "èĩªå·²": 82646,
  "Ġproportions": 37229,
  "utenberg": 111195,
  "åŀ¢": 57016,
  "ĠÙĪÙĥ": 44516,
  "ÑĤÐµÐ»ÑĮÐ½Ð°Ñı": 55461,
  "ĠUh": 103276,
  "OH": 12465,
  "Ġpierws": 60718,
  "éģ¿éļ¾": 126549,
  "åı«åģļ": 21372,
  "ĠLance": 71204,
  "æĸ¹çļĦ": 14759,
  "ãĤŃ": 20367,
  "CDC": 71746,
  "Ð»Ñĸ": 33858,
  "czes": 86759,
  "ãĤĥ": 38269,
  "zam": 115621,
  "âĪĺ": 78932,
  "ÑĥÑĪÐºÐ¸": 103672,
  "Ġawait": 11864,
  "919": 30545,
  "æĬĢè¡ĵ": 26771,
  "Ġmaintained": 16678,
  "æĥħç»ª": 11195,
  "æĻĥæĻĥ": 124466,
  "æļĦ": 96838,
  "åħīåº¦": 83103,
  "íĬ¸": 15349,
  "Ġstom": 16863,
  "Ġcoated": 44590,
  "container": 22170,
  "Ġnoise": 12189,
  "Ġintox": 70938,
  "Ġaquifer": 101922,
  "æĺŁè¾°": 47686,
  "åĸľåī§": 59331,
  "INST": 72869,
  "cko": 57172,
  "ĠIntermediate": 61672,
  "äºĨåĹİ": 91454,
  "Ġaa": 67205,
  "åŃĻåŃĲ": 50324,
  "ĠÐ¼ÐµÑĤÐ¾Ð´Ñĭ": 88599,
  "éĴ¢çŃĭæ··åĩĿåľŁ": 99969,
  "èģĶåĲĪ": 9659,
  "-Class": 120617,
  "location": 33182,
  "ĠAlternatives": 84991,
  "Ġfab": 10551,
  "ĠØ¹ÙĪØ§ÙħÙĦ": 97264,
  "æĺİæĺİ": 25425,
  "ĠFREE": 36710,
  "ä¼ĺç§ĢçļĦ": 32666,
  "auge": 71264,
  "æĪĪå°Ķ": 110440,
  "è¥¿èĹı": 36547,
  "Ġdemographic": 35965,
  "å¦Ĥæŀľæ²¡æľī": 32834,
  "Ġelabor": 20601,
  "Ġhesitated": 73555,
  ",q": 56526,
  "ĠNich": 26238,
  "å¸ĿåĽ½ä¸»ä¹ī": 55609,
  "Ġunfolded": 85823,
  "å¥³äººçļĦ": 44316,
  "Ġtoekom": 124157,
  "ĠØ§ÙĦØ³ÙħØ§": 36948,
  "Today": 19610,
  "Ġíķ´": 27341,
  "à¹Ģà¸«à¸ķà¸¸": 63231,
  "æ®¼": 104858,
  "åį´": 2844,
  "=False": 34985,
  "Ġleaving": 10981,
  "ĠPolite": 72088,
  "_heap": 127990,
  "à¥©": 47045,
  "ĠÐ±Ð¾Ð»ÑĮ": 13803,
  "è£ħæī®": 103545,
  "ĠResidual": 115469,
  "nis": 15108,
  "ĠBanking": 51862,
  "éĥ½æĺ¯ä¸Ģ": 34673,
  "ĠIndividual": 23730,
  "Ġboots": 39182,
  ".aut": 82814,
  "Ġultimate": 20609,
  "Ġmeasures": 7809,
  "ĠCultures": 88862,
  "Ġsaliva": 69779,
  "Ġ=Ċ": 18620,
  "ä¼¦": 9833,
  "040": 21952,
  "geschichte": 88521,
  "éĬħ": 67976,
  "ovnÃŃ": 93459,
  "æīĵæĸŃäºĨ": 123212,
  "uly": 3912,
  "Ġchercheurs": 122840,
  "Ġà¦ªà¦¾à¦¤": 72527,
  "ĠÐ²Ð¾Ð·Ð¼Ð¾Ð¶": 26146,
  "gj": 89832,
  "ĠWilcox": 107303,
  "à¦¦à§įà¦°": 76761,
  "Ġseller": 41979,
  "Ġthreaten": 52498,
  "åıĹåĪ°å½±åĵį": 92563,
  "Ġsourcing": 78173,
  "Ġliabilities": 39290,
  "ãĥ«ãĤ®": 71115,
  "Ġmoder": 13553,
  "èĪªè¡Į": 71297,
  "çī¹èī²": 10716,
  "Ġresistors": 82620,
  "_____ãĢĤĊĊ": 107503,
  "emoc": 70516,
  "Ġremained": 12652,
  "IPT": 13534,
  "æĮĩç¤ºçģ¯": 126168,
  "Ġporcent": 111815,
  "ĠCorrection": 72541,
  "ideon": 104353,
  "åįķä¸Ģ": 29246,
  "ä¹ĭæĦı": 36217,
  "ĠdiffÃ©rents": 69378,
  "Berg": 105588,
  "MD": 16255,
  "Ġnozz": 52229,
  "å¥³åħĴ": 65655,
  "ç¼Ģ": 35267,
  "isance": 70846,
  "Â¥": 62019,
  "ĠTue": 29731,
  "å¯ĤéĿĻ": 67583,
  "è¯¸èĳĽäº®": 68730,
  "ç¢°åĪ°": 35844,
  "IS": 2907,
  "han": 8958,
  "Ġthreatening": 38083,
  "screen": 38035,
  "Ġvez": 21786,
  "Ġmornings": 75660,
  "ĠØ§Ø¶Ø·Ø±": 126291,
  "Ġmany": 1623,
  "ä¸ĭæīĭ": 47922,
  "æľīåħ³éĥ¨éĹ¨": 31750,
  "æİ¡": 34302,
  "ĠÐ²ÑĭÑĢÐ°Ð¶": 48530,
  "ĠÐ²Ð°": 11711,
  "åĩ¡æĺ¯": 47933,
  "ĉSystem": 19718,
  "Ġavatar": 66455,
  "Ġdeadlines": 55662,
  "é£İçĶµ": 88373,
  "thumb": 59555,
  "Ġdiscriminating": 125306,
  "oset": 115994,
  "Ġcursor": 33751,
  "à²¡": 47915,
  "imize": 116141,
  "ĠÐ´ÐµÑĤÐµÐ¹": 32586,
  "Ġseldom": 48266,
  "Õ¬": 47550,
  "Ġemployee": 12121,
  "à²¨": 25671,
  "ĠBaking": 121218,
  "ĠTimes": 11566,
  "ĠÑĥÑĢÐ°Ð²Ð½ÐµÐ½Ð¸Ð¹": 108880,
  "way": 2077,
  "æ¼ĵ": 46204,
  "ĠBasil": 62381,
  "}+\\": 21945,
  "mma": 41595,
  "æ°´ä¸Ĭ": 68973,
  "rafish": 106599,
  "èĳĹè¿°": 123636,
  "Ġinfantry": 63994,
  ".b": 6229,
  "739": 30793,
  "Ð½Ð¾ÑģÐ¸": 54740,
  "çĶ»åĥı": 56871,
  "ç¡®å®ļäºĨ": 56046,
  "ä»ĸè¿ĺæĺ¯": 62511,
  "ĠØ¢Ø²ÙħØ§ÛĮØ´": 100613,
  "Ġrestored": 33322,
  "ĠGOD": 75663,
  "Ġguinea": 83998,
  "ĠQuint": 69118,
  "etra": 74699,
  "Ã³Å¼": 85389,
  "ĠAutomotive": 71197,
  "Ġlooping": 126010,
  "çĦ": 865,
  "Ú¯Ø°Ø§Ø±": 122275,
  "ĠDVD": 35362,
  "Jour": 99679,
  "Ð²Ð°ÑĤ": 39990,
  "ry": 744,
  "Ġarmor": 47994,
  "(buffer": 100887,
  "éĤ£ä¸ªå¥³äºº": 126352,
  "<｜place▁holder▁no▁764｜>": 128764,
  "Ġcramps": 115865,
  "Ġetxek": 98751,
  "è¿Ļæł·ä¸Ģç§į": 88761,
  "iteness": 96709,
  "gate": 35958,
  "ferential": 76279,
  "é¹ĥ": 83318,
  "raga": 98883,
  "Poly": 29549,
  "aily": 5698,
  "ĠÐ¼Ñĥ": 24350,
  "ĠKÃ¶n": 63166,
  "æľĢä½³çļĦ": 107293,
  "äº¤åĵį": 89523,
  "ç§ĳéķ¿": 66602,
  "ĠdÃ©partement": 126836,
  "ç«¿": 52337,
  "ÙĪØ§Ø¬": 125851,
  "manage": 96086,
  "ĠÑĪÐºÐ¾Ð»Ð°": 118769,
  "ĠUnexpected": 121939,
  "à§§à§": 22674,
  "hik": 124655,
  "usse": 117441,
  "å¸¸åĬ¡å§Ķåĳĺä¼ļ": 86530,
  "æĻ®": 3914,
  "Ġshack": 95099,
  "cla": 103509,
  "/sp": 63630,
  "Ġinforme": 118201,
  "Ġosmosis": 126290,
  "èº«çĿĢ": 86847,
  "çº³ç¨İ": 21846,
  "è©ķè«ĸ": 101387,
  "ĠITIS": 22458,
  "ÑĢÑĥÑģ": 58331,
  "ails": 3760,
  "Ġfest": 13563,
  "ĠGill": 38358,
  "æĺŁæľŁ": 16274,
  "åĽ½çļĦ": 13321,
  "ServletRequest": 89863,
  "Ġbiogas": 119295,
  "á»ī": 84997,
  "Ġcouncils": 63624,
  "å¦ĪçļĦ": 75012,
  "à¦¦à§ĩà¦°": 35158,
  "(st": 27821,
  "Ġbilingual": 62876,
  "anian": 67013,
  "-Americans": 96882,
  "è½»åŀĭ": 119534,
  "rb": 41045,
  ".inter": 70878,
  "Strategic": 117052,
  "ĠInterviews": 91675,
  "Ġforte": 54737,
  "Ġê³³": 105954,
  "æĤĦçĦ¶": 75458,
  "Registry": 79233,
  "nail": 51992,
  "Ø¨ÙĬØ¹": 54354,
  "ĠRepubl": 91793,
  "URCE": 82917,
  "Ġadorable": 68440,
  "ĠktÃ³rym": 85438,
  "ä¹Ł": 728,
  "ä¼¤æ®ĭ": 101401,
  "ĠGenesis": 46261,
  "à¸ªà¸ĩ": 50288,
  "æĿĳæ°ĳ": 18727,
  "Ġdei": 12950,
  "Ġcapitalists": 120095,
  "ä»»ä½ķçļĦ": 89535,
  "éı": 24846,
  "-gu": 45615,
  "_API": 86638,
  "ederb": 72532,
  "-occur": 102804,
  "èĢĮä¸Ķä¹Ł": 112753,
  "-url": 101914,
  "ĠMuj": 97939,
  "BX": 113770,
  "Ġdibuat": 126120,
  "...(": 125367,
  "ĠBhag": 97949,
  "ÑĤÑĭÐ¼": 100108,
  "ĠAvg": 110213,
  "ĠCristo": 62500,
  "å®«éĩĮ": 103820,
  "ĠHayes": 59358,
  "ĠIndo": 61071,
  "ìĹĲê²Į": 40055,
  "}`);Ċ": 84082,
  "Ġslender": 64636,
  "og": 520,
  "Ġdevelopers": 19265,
  "Ġunfairly": 120885,
  "ovan": 25022,
  "ĠHui": 100724,
  "world": 29616,
  "(BuildContext": 121497,
  "æİĲ": 49313,
  "STM": 44806,
  "Ð»Ð°Ð³Ð°": 52966,
  "Desc": 39385,
  "åĮ®ä¹ı": 97462,
  "ÑĤÐµÐ»ÑĮÐ½ÑĭÐ¼Ð¸": 101983,
  "ĠcriaÃ§Ã£o": 118453,
  "ĠktÃ³rzy": 86211,
  "§×": 11176,
  "å½¢å®¹è¯į": 68638,
  "æ§ĭæĪĲ": 74853,
  "éģ©çĶ¨": 82580,
  "çļĦè¿Ļç§į": 95596,
  "Ġnan": 9985,
  "ĠFT": 39175,
  "ucks": 24179,
  "Ã¡ria": 42457,
  "/D": 19716,
  "cemos": 94233,
  "ĠÃ¥": 15592,
  "åĨ¬": 7873,
  "ĠEt": 15169,
  "Ġexper": 1604,
  "_fn": 116130,
  "Ġstudents": 2604,
  "usÃ¤tz": 91372,
  "Ġkim": 63236,
  "encoded": 78650,
  "Ġkleiner": 123542,
  "äººæł¼": 34469,
  "ĠÙĪØ§ÙĦØ¹": 55737,
  "bv": 100177,
  "Ġensembles": 113114,
  "Ġdesapare": 116799,
  "chronic": 93143,
  "{": 93,
  "ĠØ§ÙĦÙħØ¬ØªÙħØ¹": 80085,
  "è¯¾åīį": 99606,
  "Ġmotorcycle": 61742,
  "åĢº": 7313,
  "åŃ¦ä¼ļ": 12182,
  "557": 27278,
  "logged": 121114,
  "åıĳæĺİä¸ĵåĪ©": 126830,
  "×Ļ×ł×Ķ": 41030,
  ".Service": 62108,
  "ĠProposition": 58050,
  "éĩĳæ²Ļ": 90505,
  "åĨĻæĺİ": 120362,
  "Ġintentional": 44352,
  "Ã«": 11241,
  "ÑīÐµÐ½Ð¸Ñı": 26685,
  "-high": 41522,
  "ĠDhabi": 92242,
  "âĹİ": 50830,
  "Ġflow": 4629,
  "heesta": 103245,
  "Ġpiez": 77830,
  "Catalog": 115746,
  "ĠTru": 46428,
  "ĠMont": 10399,
  "*q": 24203,
  "ÐµÐºÑģÐ¸": 88785,
  "Ġvowel": 46451,
  "ĠReson": 70750,
  "Ø§ÙħÛĮÙĨ": 84012,
  "Ġeaves": 122346,
  "ĠMobile": 25587,
  "ä¹łè¿ĳå¹³æĸ°æĹ¶ä»£ä¸ŃåĽ½çī¹èī²ç¤¾ä¼ļä¸»ä¹īæĢĿæĥ³": 74252,
  "ebp": 116187,
  "åħ¶ä»ĸåľ°æĸ¹": 107040,
  "ç½ĳåĲ§": 94678,
  "Douglas": 126337,
  "æķĻèĤ²çļĦ": 25700,
  "ĠAssign": 50185,
  "drive": 83188,
  ",'": 9943,
  "Ġspherical": 42436,
  "åŃĶå¾Ħ": 125324,
  "Ġneigh": 7921,
  "Ġstesso": 48576,
  "Ln": 92150,
  "Ġnosso": 73457,
  "é©¬åĪĹ": 124116,
  "áĥ£áĥ": 37961,
  "åı³è¾¹": 47861,
  "Edward": 80527,
  "å¤ĸåĬł": 78851,
  "×ķ×ľ×ķ×ª": 90435,
  "æĳĩæĳĨ": 98570,
  "ç¸½çµĲ": 116402,
  "ĠCerv": 71625,
  "åĬŁçİĩ": 19143,
  "æľīåĽĽ": 105338,
  "(format": 127818,
  "Ġknocked": 43654,
  "Ġsea": 8343,
  "Ġprime": 4309,
  "ĠHTTPS": 118118,
  "Ġproduces": 17300,
  "äººçī©": 13320,
  "need": 52972,
  "erset": 71511,
  "Ġtopographic": 90896,
  "ä½Ĩå®ĥ": 46601,
  "æĽĿåħī": 38081,
  "×ľ×ĳ": 79100,
  "æľįåĬ¡æľºæŀĦ": 95749,
  "(left": 46605,
  "ck": 999,
  "æķĻå¸Ī": 5917,
  "åĨłçĬ¶åĬ¨èĦī": 106515,
  "æİĴè¡Į": 56799,
  "èĭ±": 3218,
  "Ġ...[": 42386,
  "ó": 178,
  "çļĦæĢĿè·¯": 116987,
  "èĤ®": 125410,
  "Ġsuivant": 102144,
  "ç»´æĿĥ": 67867,
  "è§Ĥå¿µçļĦ": 110520,
  "Ġcars": 14356,
  "uang": 48687,
  "odeline": 65735,
  "ĠBernie": 105531,
  "Ġnumer": 5679,
  "Kit": 34499,
  "ç¥Ī": 29180,
  "Ġji": 33849,
  "çŀ¬æĹ¶": 93738,
  "Ġcnt": 31160,
  "ä»¥ä¸Ĭãģ®": 123095,
  "nr": 66154,
  "Ġadvances": 25038,
  "ÐµÑĤÐ¾": 70332,
  "èīºæľ¯çļĦ": 58072,
  "ĠRn": 109848,
  "å¹¿åº¦": 111485,
  "borah": 73572,
  "power": 20550,
  "ominal": 118620,
  "ĠâĪ": 3254,
  "plat": 107341,
  "ÃŁer": 68263,
  "ammu": 104565,
  "Ġviene": 41512,
  "çļĦä¸ĢåĿĹ": 110697,
  "Î±Î½": 16748,
  "Ġapril": 46516,
  "Ġdocumentos": 126239,
  "ĠÐ¿Ð¾ÑıÑģ": 121112,
  "Î¼": 3936,
  "=F": 72722,
  "zp": 74539,
  "Ġproofs": 65255,
  "åĤ¢": 68700,
  "çŃīåĲĮäºİ": 97124,
  "Different": 54339,
  "ĠJensen": 65198,
  "Ġtransforms": 50338,
  "å±ķçİ°": 20446,
  "Ġimped": 27920,
  "Ġà®ļà¯Ĩ": 123262,
  "Ġartista": 118088,
  "åĽ´çĿĢ": 86466,
  "Ġenvelopes": 105266,
  "ÑĢÐµÐµ": 112207,
  "æŀĦæĥ³": 105026,
  "å´İ": 45452,
  "Ġtemporary": 18658,
  "ç¾ŁåŁº": 104283,
  "ĠWil": 9785,
  "åľ°å°Ĩ": 48728,
  "åİŁå§ĭ": 19443,
  "Ġ*": 982,
  "ulates": 21471,
  "×ĳ×": 22584,
  "åıĪä¸įæĺ¯": 53405,
  "isas": 75624,
  "ĠperÃŃodo": 57818,
  "åı¯æĥ³èĢĮçŁ¥": 90554,
  "Ġdefining": 23319,
  "Ġfrust": 16859,
  "Esta": 73026,
  "æ¼ĶçļĦ": 112019,
  "ÉĻl": 61969,
  "ĠÐ¶ÐµÐ½ÑīÐ¸Ð½Ñĭ": 122819,
  "Ġbuf": 54632,
  "ä¼ĳ": 6284,
  "æīĢä½ľ": 42044,
  "ĠHonors": 96532,
  "æĤĦæĤĦåľ°": 94297,
  "Ġkidd": 101697,
  "Frank": 44341,
  "Dow": 104426,
  "Ġspots": 23287,
  "Ġflamm": 98956,
  "åľ¨èĩªå·±çļĦ": 51652,
  "gow": 40412,
  "ĠØ§ÙĤØªØµØ§Ø¯": 121864,
  "ĉelif": 125920,
  "ä¸Ńå¤ĸ": 43145,
  "çļĦå¤§åŃ¦çĶŁ": 86507,
  "æĪĳåĢĴ": 101045,
  "olang": 96378,
  "ayo": 49963,
  "å®¤åĨħ": 21310,
  "Ġligne": 51204,
  "Ġhazard": 23616,
  "room": 5638,
  "çŁ¥è§ī": 74435,
  "ĠÙħØ´Ø®Øµ": 99597,
  "çľ¼ä¸ĭ": 53409,
  "Ø¨ÙĬØ±Ø©": 72248,
  "èĭĽåĪ»": 108044,
  "ĠÐ¢Ð°ÐºÐ¸Ð¼": 88155,
  "Ġê¸Ī": 83506,
  "EH": 76074,
  "Ġtints": 113965,
  "éº»çħ©": 70442,
  "ä¸īåįĥ": 41478,
  "ĠBoeing": 63320,
  "Ġnearly": 8791,
  "æ²¥éĿĴ": 53666,
  "åµĮå¥Ĺ": 110193,
  "fÃŃcie": 122418,
  "æĪĳå°±æĺ¯": 45564,
  "Ġende": 25075,
  "ĠWarren": 35901,
  "Ġmiglior": 77552,
  "ç¬¦": 4596,
  "asadpang": 89945,
  "ĠÄĩ": 74500,
  "grown": 76879,
  "Ġfet": 32106,
  "Ġcensorship": 82354,
  "Ġcontracted": 55218,
  "izado": 44686,
  "ĠRick": 31049,
  "ĠTracing": 86654,
  "ĠÄĮesk": 78382,
  "_k": 24224,
  "ose": 863,
  "iso": 28387,
  "MC": 13867,
  "Ġcomposer": 43392,
  "itschrift": 89042,
  "Exception": 7898,
  "è¤Ĳ": 35642,
  "ĠBreathing": 126728,
  "Ġpas": 6109,
  "-ma": 107438,
  "åĨįçĶŁ": 32816,
  "Attributes": 55337,
  "EFAULT": 36917,
  "åĬŁèĥ½çļĦ": 42535,
  "cios": 45531,
  "phthal": 83918,
  "ĠÙĪØ¸": 89273,
  "Ġpract": 2546,
  "ĠAppe": 27786,
  "ç»Ħç»ĩå®ŀæĸ½": 83001,
  "çĽ¸çº¦": 110116,
  "Generation": 100623,
  "è¿ĻæĿ¡è·¯": 97869,
  "ARTICLE": 125834,
  "Ġtou": 5824,
  "ĠPharm": 64889,
  "å¼ĢéĹ¨": 36794,
  "'ann": 114903,
  "è¯ĪéªĹ": 37498,
  "çķ¥å¸¦": 107345,
  "åįļå®¢": 51957,
  "Ġplacing": 25871,
  "dom": 5577,
  "åī§çĥĪ": 50228,
  "Ð´Ð¸Ð²Ð¸": 50663,
  "åı¶çīĩ": 44232,
  ".float": 111796,
  "åı²": 3043,
  ",......": 105418,
  "Ġseparate": 9217,
  "ĠGard": 23176,
  "lan": 16934,
  "urer": 12497,
  "æĺĶæĹ¥": 80673,
  "éĻįä»·": 82201,
  "ÃĬ": 83537,
  "ĠÃ¤r": 12906,
  "Ġformatting": 54527,
  "æľīä¸Ģåıª": 119724,
  "hrer": 42243,
  "Ġconcern": 4829,
  "bac": 115003,
  "Ġimpressions": 57999,
  "åħĪçĶŁåľ¨": 116685,
  "åĸľ": 3178,
  "ANCE": 27789,
  "-being": 15056,
  "services": 43105,
  "éģĹæĨ¾": 30100,
  "è¯»": 3154,
  "à§¨": 16049,
  "(height": 99429,
  "åĲĳä»ĸ": 47303,
  "çĥ¹è°ĥ": 126968,
  "Ġfauna": 58624,
  "æľīä¸º": 65505,
  "Ġcuad": 69665,
  "Ġfigured": 32726,
  "_)": 26258,
  ".Integer": 108451,
  "ÙħØ§Ùħ": 70852,
  "ĠOwn": 23054,
  "Íĺ": 91160,
  "è¿ĻæĦıåĳ³çĿĢ": 52197,
  "å·¥åķĨä¸ļ": 97647,
  "Ġangiogenesis": 90976,
  "å¤§æ£ļ": 93121,
  "ĠPe": 4897,
  "è®¡ä»·": 88936,
  "å¤±è´¥": 15581,
  "GA": 14752,
  "æĻķ": 21076,
  "said": 72707,
  "è¦ģåĴĮ": 92158,
  "àµįà´Ł": 71430,
  "Ġracism": 35735,
  "<｜place▁holder▁no▁213｜>": 128213,
  "å®ģæĦ¿": 74150,
  "Let": 5718,
  "åĽ¢åľĨ": 89400,
  "KC": 55318,
  "Ġaddresses": 19409,
  "âĢ¤": 64326,
  "à¸¹à¸ģ": 22977,
  "ä»Ĭå¹´çļĦ": 43670,
  "éĢļè¿ĩäºĨ": 55447,
  ",System": 119761,
  "Din": 126840,
  "nard": 101134,
  "éĸ": 2388,
  "æīĵäºĨä¸ª": 68251,
  ".\"\"\"Ċ": 77319,
  "unique": 38138,
  "460": 19864,
  "Ġanni": 32733,
  "å§ĭçµĤ": 99117,
  "åįģä¸ĢæľĪ": 78911,
  "Ġza": 12331,
  "Ã¤ss": 63448,
  "æķĻè®Ń": 32957,
  "åĨĪ": 37859,
  "Ġautomatic": 22835,
  "è¯ģ": 2109,
  "ĠLind": 26107,
  "çİ°åľ¨å°±": 98462,
  "Ġhydrate": 111945,
  "ystyrene": 105852,
  "Ġvillains": 110822,
  "Ġstrument": 81324,
  "ĠThai": 40569,
  "Ø§ÙĩØ±": 90809,
  "ØªÙı": 79357,
  "Ġì¡°ê±´": 127678,
  "ä¸Ģä»£": 26638,
  "Ð¼Ð¾ÑĤÑĢÐ¸": 60696,
  "Ġprovocative": 91433,
  "æĹĹ": 9599,
  "Ġphi": 89076,
  "zoom": 119393,
  "ĠPlanner": 116899,
  "âĢ¦âĢ¦âĢ¦âĢ¦âĢ¦âĢ¦âĢ¦âĢ¦": 25606,
  "ãĤĴãģ¤": 72625,
  "Ġconna": 40047,
  "emann": 49101,
  "ĠGeo": 65628,
  "Ġenlisted": 85913,
  "https": 5395,
  "ĠÐ¾ÐºÐ¾Ð»": 55129,
  "ooks": 35436,
  "ĠBreast": 48416,
  "Ġcaffeine": 50698,
  "åĥļ": 42114,
  "ĠDalam": 58905,
  "Ġgestured": 111231,
  "Peter": 39314,
  "Fail": 75589,
  "æį¢ä»£": 124142,
  "Ġ×ķ×ŀ×": 29411,
  "Ġrarity": 106881,
  "persons": 117199,
  "_function": 64334,
  "umbles": 80999,
  "Tn": 113143,
  "ÎµÎ½": 18809,
  "å°Ŀè¯ķ": 16992,
  "Ġchecking": 21587,
  "åĪĨé¡ŀ": 77639,
  "Ġdeposit": 26894,
  "à¥ģà¤²": 94292,
  "ĠArcher": 79894,
  "Ġalph": 80316,
  "ursing": 96647,
  "éĵ¬": 64157,
  "æıĲä¾Ľä¸Ģä¸ª": 82558,
  "-ful": 120139,
  "Ġarena": 41429,
  "Ġsympt": 7211,
  "Ã©ter": 105121,
  "Ġinfinit": 87537,
  "äººçĶŁ": 11463,
  "Ġ(...)ĊĊ": 98476,
  "çļĦåĲįä¹ī": 90659,
  "§×¨": 117692,
  "çļĦåŃ¦ä¹ł": 23834,
  "åħļä»£ä¼ļ": 83714,
  "çļĦåħĥç´ł": 73354,
  "Ġgraf": 69623,
  "Ġlol": 69745,
  "Ġkph": 69411,
  "è©¹å§Ĩæĸ¯": 56752,
  "ĠØ¨ÙĢ": 110791,
  "å°±æĺ¯è¦ģ": 34962,
  "efit": 73298,
  "ĠSiber": 63495,
  "ĠHair": 53270,
  "ĠÐ¿Ð¾ÑıÐ²Ð¸": 76679,
  "Ġfeasibility": 43972,
  "ä»Ģä¹Īäºĭæĥħ": 65005,
  "-id": 47189,
  "ĠQuaternary": 49781,
  "æĮīçħ§åĽ½å®¶": 114603,
  "Exerc": 100607,
  "Ġfearful": 67149,
  "å¾Ĺå¿«": 106343,
  "anyak": 25806,
  "ĠReinh": 99767,
  "æŃ»ä¸į": 95656,
  "ĠLeaf": 46736,
  "åľ¾": 15328,
  "Ġpalabras": 74627,
  "idd": 3966,
  "åĲĮæĹ¶ä¹Łæĺ¯": 66400,
  "çĥŃçĥĪçļĦ": 78854,
  "à·Ķ": 50506,
  "Roskov": 57113,
  "æ¶Īè´¹åĵģ": 70995,
  "Sh": 4614,
  "Ġprzed": 30173,
  "èĢħå¯¹": 120307,
  "Ġautomobile": 44718,
  "}.ĊĊ": 78511,
  "Ġfiltered": 37952,
  "lam": 7731,
  "å¹¶ä¸º": 61998,
  "Duplicate": 120043,
  "??ĊĊ": 84841,
  "Ġcriticize": 90658,
  "elia": 37279,
  "è¦ģæĢİä¹Ī": 119600,
  "weisen": 104009,
  "Ġculmination": 106222,
  "ĠFlores": 88765,
  "ĠÎĶ": 17405,
  "ĠPrograma": 91651,
  "(var": 49432,
  "ĠCited": 34516,
  "ĠFÅĳ": 117802,
  "æ¯įæł¡": 86600,
  "çºªå¿µç¢ĳ": 113733,
  "Ġpreschool": 27488,
  "åħ±æľī": 19518,
  "ĠLÃ¡s": 123250,
  "Ġultimately": 14835,
  "ĠEnum": 91169,
  "Ġduoden": 101680,
  "Ġbursting": 86074,
  "anine": 71717,
  "à¸¸à¹Īà¸Ļ": 69780,
  "Ġdiagnost": 79792,
  "Justice": 98510,
  "æıĲä¾Ľ": 3796,
  "ĠFirms": 109411,
  "_l": 7755,
  "åĴĮéĻĪ": 96145,
  "Ġadversarial": 101818,
  "æĪĳä¸į": 11924,
  "ĠÐºÐ¾ÑĤÐ¾ÑĢÐ¾Ð³Ð¾": 52519,
  "è¾½ä¸ľ": 126358,
  "è¾ĵ": 3585,
  "Ġcapaz": 95076,
  "åĵ¨": 40468,
  "èĮĥå¼ı": 102280,
  "è½¬åŃĲ": 72879,
  "å¥½ç¬ĳ": 85580,
  "ĠtÃ¶rt": 117426,
  "Ġcapsule": 53269,
  "ĠRadiation": 56509,
  "è¿ĩåī©": 72645,
  "ĠHierarchy": 126494,
  "Ø¯Ø§Ø±Ø©": 80522,
  "ios": 4091,
  "Ð©": 87128,
  "Ġsout": 39402,
  "prilis": 120180,
  "à¸¶à¹īà¸Ļ": 24214,
  "ä¸Ģè¡Įäºº": 86319,
  "Ġartistry": 104667,
  "åĿļä¿¡": 64446,
  "radation": 127939,
  "Like": 18166,
  "äºĨå¥½åĩł": 113282,
  "ĠCEO": 17471,
  "Ġlaughed": 26178,
  "è§Ħå®ļ": 4334,
  "ĠPetr": 90089,
  "ĠÅ¼ycie": 112961,
  "ĠShortly": 88274,
  "Ġ×¢×ĳ": 69428,
  "ä¸¾æİª": 31888,
  "yla": 60790,
  "è¿Ļä¸Ģå¤©": 58512,
  "ylabel": 86489,
  "ä¸»æ¼Ķ": 49839,
  "éĺ´æĢ§": 61270,
  "ÙĥÙħ": 26026,
  "Ġuch": 114535,
  "åľºæīĢ": 18790,
  "èº«ä»½è¯ģ": 34856,
  "ĠUniversal": 33116,
  "åĻĵ": 98195,
  "Ġtypical": 12573,
  "Ġbild": 51090,
  "ĠWellington": 51604,
  "obil": 29759,
  "iology": 12453,
  "Ġrevis": 26857,
  "ĠPou": 83422,
  "BST": 84657,
  "ä¸Ģæ¯Ķ": 121972,
  "ãĥĹ": 15883,
  "Ġconfirms": 48804,
  "ä¸Ģæµģ": 41332,
  "ĠManufacturing": 37039,
  "å¯Įè£ķ": 44955,
  "ĠConsortium": 75469,
  "ĠÐ´Ð²Ð¸": 27359,
  "ÐµÐ»Ð¸": 34301,
  "Ġdemol": 49814,
  "ĠKÃ¼": 90074,
  "ä»ĩæģ¨": 68495,
  "ĠMarilyn": 93645,
  "è£ĻåŃĲ": 67418,
  "é©¬æĸ¯": 56789,
  "åĲįèªī": 66717,
  "Ġunidentified": 104019,
  "ĠGermany": 10322,
  "Ġseine": 39272,
  "ãĢĤâĢĿâĢľ": 33731,
  "ÐºÐ¾ÑĢ": 59985,
  "èĢĮè¿Ļ": 54128,
  "èĢģæĹ§": 96763,
  "Ġjest": 11306,
  "Ġtrek": 53372,
  "ophag": 31429,
  "ĠGreatest": 55925,
  "ãģ«ãĤĪãĤĭ": 45815,
  "Ø§Ø¬": 9811,
  "Ġcogn": 10837,
  "oria": 9401,
  "Ġgateway": 48559,
  "à¸´à¸¨": 89339,
  "ç§ĳåĪĽ": 69186,
  "ĠimÃ¡genes": 112397,
  "elor": 105279,
  "rish": 58087,
  "ĠMormon": 75100,
  "ĠPapua": 79721,
  "Ġ×Ĳ×ª×Ķ": 124491,
  "ĠMinnesota": 26604,
  "çīĽ": 5648,
  "åīįè¿Ľ": 26076,
  "Ġmagnetization": 105755,
  "åŃĹæ®µ": 36718,
  ".front": 67178,
  "Ø®Ø¯Ùħ": 44102,
  "å·§åħĭ": 53262,
  "ĠTrem": 79204,
  "å¤Ł": 3193,
  ".fire": 118815,
  "\"s": 110269,
  "ç»Ŀå¯¹åĢ¼": 89733,
  "ĠPromise": 33122,
  "Ġbedeutet": 94993,
  "æľīæĪĳ": 105140,
  "ĠHogan": 100165,
  "ĠFlat": 54401,
  "ĠÑħÑĢÐ°": 60650,
  "Ġkemampuan": 95703,
  "Words": 38086,
  "Ġmult": 2261,
  "Ã¡lis": 76123,
  "Ġreported": 5768,
  "{},": 112314,
  "quis": 14504,
  "åŃ¦çĶŁä»¬": 47347,
  "Ġinvests": 123001,
  "Ġpenned": 121332,
  "å¯ĦçĶŁèĻ«": 97181,
  "ĠÐ½Ð°Ð¿ÑĢÐ°Ð²": 34234,
  "çļĦä¸Ģå¤©": 49070,
  "ĠRede": 75373,
  "Ġmuchas": 59310,
  "ĠHod": 47129,
  "shit": 91546,
  "hael": 80272,
  "Ġquieter": 106013,
  "<｜place▁holder▁no▁579｜>": 128579,
  "ãģ§ãģĻãģĮ": 47802,
  "Ġdeparture": 31268,
  "confirmed": 125570,
  "åĳ¨è¾¹": 24660,
  "167": 11185,
  "rim": 5041,
  ".train": 123044,
  "ĠNLR": 105314,
  "åľ¨åľ°ä¸Ĭ": 28430,
  "éģİäºĨ": 62089,
  "HL": 21247,
  "_group": 53913,
  "åĽ°éļ¾": 9591,
  "-per": 18509,
  "Ġsecretary": 29286,
  "ALU": 14144,
  "bertura": 119082,
  "åľ¨å·¥ä½ľ": 55197,
  "Ð¾Ð³Ð¾Ð²": 32672,
  "ĠEntwick": 118466,
  "è¿ĩçĿĢ": 83690,
  "ÙĪØ¨": 11948,
  "ĠTalmud": 115298,
  "({Ċ": 15148,
  "J": 44,
  "Ġvengono": 80783,
  "entiful": 90387,
  "åĵŃçĿĢ": 101297,
  "ĠÐ¿ÑĢÐµÐ´Ð»Ð¾Ð¶": 60379,
  "ĠKet": 53829,
  "ä¸ĵç§ĳ": 40941,
  "mary": 5259,
  ">S": 118618,
  "Matthew": 53488,
  "çĶŁçī©åŃ¦": 53496,
  "Ġdelirium": 121481,
  "åĿļæĮģ": 7087,
  "Cook": 65502,
  "Answers": 32066,
  "ĠÐ¾Ð±ÑĥÑģ": 108621,
  "ĠIncorporating": 97557,
  "å¼ıä¸Ń": 32175,
  "Äģs": 83375,
  "ĠPoc": 101589,
  "ĠÑĥÐ·": 60070,
  "Ġinexperienced": 105392,
  "è¿ĻäºĽéĹ®é¢ĺ": 51421,
  "README": 101691,
  "eine": 86337,
  "à²¹": 84814,
  "Ġdecir": 40365,
  "ĠÑħÐ°ÑĢÐ°ÐºÑĤÐµÑĢ": 57683,
  "000": 1320,
  "numbered": 108355,
  "Ïī": 5583,
  "Ġadmiration": 58134,
  "-tal": 54616,
  "ĠCarpenter": 76108,
  "Ġassaults": 102851,
  "Ġheating": 19194,
  "Ġsynthes": 25844,
  "Type": 4595,
  "å¤ĸè¡¨": 56266,
  "ĠKau": 118216,
  "ementia": 30424,
  "xter": 67286,
  "Õº": 57778,
  "Ġkisses": 81465,
  "çº¢èĤ¿": 103739,
  "åľ¨æīĭ": 82779,
  "åıĳåħī": 45984,
  "é£ŀåİ»": 105086,
  "Ġchocol": 104118,
  "ĠAcute": 51516,
  "Ð´ÐµÐ½ÑĤÐ¸": 85944,
  "Ò£": 31409,
  "èĤłéģĵ": 41750,
  "æĹłè¯Ń": 58906,
  "åħĪè¿Ľ": 12498,
  "ĠKolkata": 101623,
  "_input": 32289,
  "ĠLiberal": 46379,
  "ĠÐ¾ÑĤÐ´Ðµ": 37210,
  "ĠÐ´Ð¾Ð»": 15126,
  "Ġremarks": 33867,
  "å¤īãĤı": 127843,
  "ĠÐ³ÑĢÑĥÐ¿Ð¿": 109729,
  "æľį": 1803,
  "åĨįæĿ¥": 40428,
  "probably": 78025,
  "Ġlinear": 9548,
  "ä½įå±ħ": 74772,
  "æĥ³è±¡": 15276,
  "ÑĺÐµ": 9461,
  "å½©": 5652,
  "%.ĊĊ": 23901,
  "(page": 72952,
  "Ð½Ð¾Ð¹": 4380,
  "Ġflame": 34970,
  "æŃ¦å°Ĩ": 112766,
  "ĠRx": 101979,
  "-hoc": 122376,
  "Ġcontemplation": 86436,
  "NG": 22641,
  "Ð¼ÐµÑĢ": 10748,
  "NU": 30294,
  "ä¸ĭåįĪ": 12279,
  "Ġheats": 96628,
  "Ġpropri": 17637,
  "ĠindÃŃgenas": 121022,
  "Ġtalents": 38091,
  "finding": 112070,
  "Ġrooted": 38090,
  "ĠÑįÑĤÐ¸Ñħ": 43805,
  "Ġseemingly": 28848,
  "Ġridicule": 123643,
  "Ð´ÑĨÐ°": 52610,
  "Ġbiased": 49495,
  "çİ°ä»£åĮĸ": 20857,
  "Ġblast": 36505,
  "amer": 17420,
  "ipur": 91880,
  "illus": 38481,
  "Follow": 20676,
  "å·§åĲĪ": 78565,
  "Ġë³ĳ": 86271,
  "ÛĮØ´Ùĩ": 78430,
  "waters": 83757,
  "åŁİå¸Ĥè§ĦåĪĴ": 95865,
  "Race": 87809,
  "define": 11006,
  "ĠCTC": 119285,
  "Ġturned": 6818,
  "Ð®": 63602,
  "Ġpret": 6652,
  "æĦıå¿µ": 99450,
  "ointing": 124314,
  "å®ıè§Ĥè°ĥæİ§": 97674,
  "ĠScience": 5540,
  "Ġcio": 96162,
  "è®°è´¦": 69305,
  "Ġaffords": 111847,
  "à¤¹à¥ĩ": 82147,
  "Ġclim": 18181,
  "Ġannoyance": 103208,
  "Ġeggplant": 122938,
  "è¯¸ä½į": 74991,
  "(j": 17776,
  "ÎµÎ¹Î±": 54539,
  "Ġtemple": 22855,
  ".git": 93529,
  "ĠToronto": 25564,
  "ardy": 101161,
  "åº": 497,
  "Ð»Ðµ": 3040,
  "Ġcure": 29393,
  "-wheel": 87194,
  "Ġindu": 10959,
  "Ask": 39631,
  "çºª": 4293,
  "urement": 35486,
  "Ġfashioned": 91349,
  "æĸ¹åĿĹ": 111138,
  "æĢİä¹Īçľĭ": 81962,
  "æ¢": 2062,
  "Ø§ØŃØ«": 73866,
  "ĠEvents": 32525,
  "Ġsignificant": 3168,
  "ophora": 122555,
  "ĠÙĬÙı": 51003,
  "ĠExisting": 76847,
  "atitude": 116160,
  "Ġih": 18684,
  "GRAPHY": 106638,
  "æĭĸæĭī": 73883,
  "Dw": 111438,
  "expect": 52973,
  "Ġyog": 41857,
  "books": 19459,
  "ÑĨÐ¸Ð¿Ð»Ð¸": 118087,
  "ĠHarmon": 96362,
  "ĠAthletics": 63527,
  "ĠFORM": 83913,
  "è°ķ": 67601,
  "è¡¨çİ°äºĨ": 86000,
  "ÙħÙĦ": 11866,
  "åħħè£ķ": 112039,
  "Çİn": 70834,
  "æħĪç¦§": 92974,
  "ÑĢÐµÐ¹": 51925,
  "Ġinaugurated": 114028,
  "Ġdishonest": 127575,
  "éĴ´": 109777,
  "vang": 109731,
  "ä½Ĩåıªè¦ģ": 119363,
  "Ġstacking": 92887,
  "å¼ķåıĳçļĦ": 81302,
  "ĠBTU": 113425,
  "ĠposiciÃ³n": 98715,
  "éĢĤåĲĪ": 10447,
  "äºİæĺ¯æĪĳ": 109402,
  "åľĨå¿ĥ": 74576,
  "Ġoppos": 64752,
  "åıªè¦ģæľī": 71598,
  "åħ¨åİ¿": 28243,
  "Ġbreed": 28748,
  "BMI": 82416,
  "-full": 56334,
  "ä¸įä¿¡": 44574,
  "_at": 22698,
  "Ġxn": 98536,
  "å£ģåŀĴ": 78241,
  "Ġefficiency": 9062,
  "raj": 29530,
  "Ġdreams": 20500,
  "ĠRuf": 90663,
  "Ġhoofd": 89554,
  "acio": 34380,
  "åµĮåħ¥å¼ı": 105375,
  "ĠSDK": 69695,
  "äººå·¥": 15934,
  "è§ĴèĲ½": 34635,
  "Ġprudent": 74792,
  "ĠAbdel": 99788,
  "Ġcrop": 19843,
  "Ġsunrise": 62777,
  "ĠTaurus": 123939,
  "Still": 33648,
  ".blogspot": 62270,
  "Ġscholarly": 45582,
  "hÃ¤ng": 127734,
  "andas": 93616,
  "Ġguidelines": 13782,
  "Ġinclu": 76136,
  "ĠPleist": 110352,
  "-des": 28364,
  "459": 24717,
  "à¸Ńà¸²à¸«à¸²à¸£": 40762,
  "çĳķ": 52809,
  "ĠÄįasto": 100649,
  "ĠÐ¿Ð¾ÑģÐºÐ¾Ð»ÑĮÐºÑĥ": 70201,
  "cÄħ": 79420,
  "ĠÐºÐ¾Ð»Ð¸ÑĩÐµ": 25658,
  "Ġtej": 47366,
  "Ġvortex": 71907,
  "rinos": 113873,
  "ä¸įç¨³": 83987,
  "block": 16555,
  "èĤ¡ä»·": 35521,
  "Ġharmon": 25726,
  "Ġkindergarten": 27752,
  "Ġhydrogel": 115901,
  "Ġdancing": 32137,
  "×ł×": 41361,
  "æľīæŃ¤": 97192,
  "ĠÐ´Ð¾Ð¼Ð°ÑĽÐ¸Ð½ÑģÑĤÐ²Ð°": 27164,
  "à§įà¦¬": 10678,
  "å¤©çľŁ": 60968,
  "åı¯": 653,
  "Ġsagt": 83142,
  ",,,,": 57448,
  "æķ°åŃĹ": 8283,
  "Ġtriumphs": 111335,
  "à°ļ": 92139,
  "ä¾µçķ¥": 44724,
  "css": 40268,
  "èĥ«": 95953,
  "Å¡": 3954,
  "éĵĥ": 24280,
  "ĠBulld": 76060,
  "Ġmalattia": 114732,
  "à²¯": 51010,
  "æĦ": 701,
  "_prefix": 99936,
  "è¿ĩæĪ·": 114341,
  "ĠPlant": 14174,
  "å®£ç§°": 79676,
  "HW": 89495,
  "Ġlately": 40616,
  "èģĶéĤ¦": 31529,
  "Ġdemolition": 96235,
  "rique": 30477,
  "æ·ĭæ¼ĵå°½": 104135,
  "èĢĮä½¿": 77561,
  "ĠTransplant": 98014,
  "æľįåĭĻ": 30425,
  "ĉl": 63114,
  "ĠBurning": 99659,
  "Ġsolu": 127691,
  "Ġdensely": 85954,
  "lates": 125358,
  "ĠØ³Ù¾Ø³": 122707,
  "ranch": 8744,
  "ç©Ģ": 98083,
  "ĠStefan": 54122,
  "åĵįèµ·": 33408,
  "Ð¸Ñģ": 6164,
  "Ġgod": 10961,
  "Ġobservations": 14605,
  "ĠSoul": 39048,
  "ä¸¤ä¾§": 30729,
  "Ġsocialism": 68590,
  "/z": 47127,
  "'et": 113036,
  "ĠÙĨÙģØ³Ùĩ": 85206,
  "ĠEgyptians": 74603,
  "ï¼ģâĢĿâĢľ": 85545,
  "Ġhus": 9635,
  "Ġliked": 18428,
  "Ġillumination": 52634,
  "Ġinsight": 17016,
  "rh": 16651,
  "ICAgICAgICAgICAg": 72453,
  "åħ½": 11953,
  "(items": 117097,
  "Ġkan": 11148,
  "ĠÚ©ÙĪÚĨ": 108045,
  "ĠLadies": 83396,
  "âŃĲ": 40224,
  "-ro": 68050,
  "Ġà¦Ĩà¦®": 27759,
  "ĠØ§Ø³Ø§Ø³": 85366,
  "Ġtransitional": 64314,
  "Ġeffects": 4680,
  "ellan": 82865,
  "çĥ§ä¼¤": 95291,
  "çļĦæķĻèĤ²": 31020,
  "ä¸ĢçĽ´": 4976,
  "ÑĢÐµÐ½Ð¸Ðµ": 98081,
  "OG": 15387,
  "oten": 38858,
  "Ġdroite": 95612,
  "Ġstamp": 29710,
  "ĠDeleg": 87008,
  "Ġmeningkat": 56378,
  "_c": 4941,
  "ä½ĵåĨħçļĦ": 55604,
  "è¿ĩæĿ¥äºĨ": 60659,
  "ÄĢ": 87743,
  "ĠCAT": 50341,
  "çļĦä¸Ģæ®µ": 71062,
  "è¿ĺçľŁæĺ¯": 62470,
  "imus": 44228,
  "Ġmatchup": 105847,
  "(App": 127173,
  "éł¸": 95585,
  "ĠRFID": 83255,
  "KR": 50876,
  "åķĵ": 117630,
  "abelle": 91378,
  "é¦ĸä½į": 64813,
  "èº«åĲİ": 24240,
  "ĠFAQs": 45424,
  "Ġunparalleled": 71868,
  "Ġarisen": 88280,
  "ĠYar": 123780,
  "Ġ[];ĊĊ": 84398,
  "Works": 23359,
  "åĥħåĥħ": 103500,
  "ÙĪØ£": 82702,
  "Ġwraz": 121102,
  "'app": 48334,
  "Ġleaching": 105682,
  "Ġinf": 2472,
  "é¢Ŀå¤´": 56683,
  "è¿½æº¯åĪ°": 113788,
  "åĴĮç²¾ç¥ŀ": 78948,
  "Ġëª": 13362,
  "ĠBlood": 17119,
  "Ġlegitimacy": 56300,
  "Ã´nio": 115935,
  "æ²īéĩį": 51084,
  "Ġalgorit": 28774,
  "æ°ĳå®¿": 58802,
  "Ġkite": 110558,
  "Ġmonol": 74647,
  "izations": 15866,
  "](./": 93043,
  "Ġ×Ĳ×ľ×£": 98383,
  "ä¼ļè§ģ": 81604,
  "Â¶": 31683,
  "Ã¢": 4308,
  "åĤ¨èĹı": 126818,
  "è½¬è¿ĩ": 56584,
  "è¡Įä¸ºåĴĮ": 118511,
  "æľīå¾Īå¤§": 75762,
  "ĠÐ¸ÑģÐ¿Ð¾Ð»ÑĮÐ·Ð¾Ð²Ð°Ð½Ð¸ÐµÐ¼": 115985,
  "ĠCrop": 74027,
  "ises": 4692,
  "ç¼Ĩ": 27478,
  "ĠHast": 71831,
  "ä½ĵæł¼": 118912,
  "ĠRuns": 101866,
  "æ¶īå¤ĸ": 94041,
  "ĠparticuliÃ¨rement": 99486,
  "Ġupt": 25964,
  "ĠÐ¾Ð±ÑĢÐ°Ð·Ð¾Ð²Ð°Ð½Ð¸Ðµ": 105323,
  "rove": 39972,
  "Ġdrivers": 18899,
  "ç°§": 34485,
  "èĭ±æīį": 127421,
  "Ġgarage": 40633,
  "æĺ¯å¦ĤæŃ¤": 99116,
  "èĩ": 587,
  "Ġanticoag": 86825,
  "ĠMontrÃ©al": 111635,
  "çĬ¹è±«": 25969,
  "anes": 19167,
  "Ġappended": 95021,
  "Ġmetac": 97438,
  "Ġà¦ªà¦°à§ĩ": 127330,
  "ĠDRAW": 125154,
  "à¸£à¸°à¸«à¸§à¹Īà¸²à¸ĩ": 70501,
  "äº¦åį³": 93759,
  "ĠFlex": 34916,
  "Ġtracked": 55038,
  "æĶ¶çº³": 83172,
  "Ġseated": 46620,
  "éĤ£æĹ¶çļĦ": 100378,
  "Ġscu": 54479,
  "_sc": 55172,
  "verify": 75558,
  "inae": 44788,
  "/@": 125192,
  "ĠÑĨÐµÐ½ÑĤ": 35251,
  "Ġflaps": 111412,
  "ĠÃ¸": 54177,
  ".getMessage": 105816,
  "amment": 45369,
  "Ġpubblic": 41507,
  "Ġparsing": 76466,
  "Ġimplying": 68299,
  "ĠWett": 125408,
  "outen": 107369,
  "Ġemergencies": 57697,
  "ĠQueue": 49633,
  "_ip": 87988,
  "446": 24332,
  "é«ĺä½į": 53026,
  "Ġtermer": 27394,
  "è·¯è¾¹": 52794,
  "ĠHor": 14421,
  "åĮĪå¥´": 63989,
  "ĠScha": 89800,
  "Ġstereotyp": 87161,
  "Ġcauses": 8718,
  "ĠTreasury": 38225,
  "iong": 68198,
  "Ġscripture": 65009,
  "ĠAssociated": 36949,
  "des": 6324,
  "çī¹å°Ķ": 70039,
  "ç¬¬ä¸Ģåį·": 112559,
  "Ġkinds": 14021,
  "Ġchart": 12928,
  "jects": 18756,
  "çĲĨå¿µ": 13764,
  "åħ¥é©»": 84513,
  "è¨Ģèªŀ": 80735,
  "ä¸ĭåĪĹåħ³äºİ": 114090,
  "ĠDisorder": 50052,
  "alore": 67586,
  "à±įà°¤": 73428,
  "äºĮè¯Ŀ": 116973,
  "Ġwob": 85350,
  "/pr": 107506,
  ",NULL": 64708,
  "Ġgute": 107450,
  "ivariate": 35217,
  "æľĢåĪĿçļĦ": 68247,
  "-La": 83408,
  "è¡¥": 4356,
  "Ġharnessing": 97253,
  "ĠPeb": 70083,
  "æĺ¯çĶ¨": 30493,
  "ĠÑĢÐ°Ð¼ÐºÐ°Ñħ": 90977,
  "æµ·è¾¹": 83134,
  "bygg": 106488,
  "Ġshorthand": 122756,
  "Ġunderscore": 83667,
  "Clip": 104938,
  "ihad": 65825,
  "ĠLena": 90772,
  "Ġillustrates": 27508,
  "fÃŃ": 105255,
  "ĠLopez": 56319,
  "Ġbackpack": 60306,
  "rapeutics": 56987,
  "weekly": 109110,
  "_space": 97861,
  "ç«º": 95186,
  "endale": 118874,
  "æķĻå®¤": 25121,
  "Ġlitt": 53528,
  "Ġsilicon": 31077,
  "Nothing": 43725,
  "çĭ": 1903,
  "[\"": 10931,
  "æ¶Īéĺ²": 16610,
  "Ġparticipated": 29344,
  "ÏĦÎ¯": 82097,
  "ä¸İæľįåĬ¡": 127031,
  "ĠExcell": 30045,
  "Ġreflection": 18654,
  "×¨×Ļ×ļ": 70200,
  "Ġ×ĵ": 12926,
  "è»įäºĭ": 103912,
  "ĠØ§ÙĦØ¢Ø®Ø±": 95959,
  "Ġshield": 23871,
  "æıĲçĤ¼": 69508,
  "ĠÐĳÑĭ": 121780,
  "ArrayList": 35791,
  "åº¦è¿ĩ": 42193,
  "otel": 104409,
  "ç½Ĺåħ°": 121270,
  "ĠØ£ÙĬØ¶Ø§Ùĭ": 106700,
  "Ġpollut": 39307,
  "å°½æĺ¯": 125283,
  "à¹Ģà¸ªà¸µà¸¢": 66049,
  "à¸µà¹Īà¸¢à¸Ļ": 56388,
  "ÑīÐµÐ½Ð¸Ð¹": 90895,
  "Ġhandelt": 107977,
  "-focused": 55530,
  "å¹¸ç¦ıæĦŁ": 69842,
  "Ġtechnology": 4807,
  "ĠÐ²Ð¾Ð»": 39976,
  "Ġcolleges": 31387,
  "è¿Ļè®©": 57066,
  "Ġbegg": 108805,
  "ï¼ļĊ": 7524,
  "Ġinfarction": 56968,
  "Navig": 59486,
  "Ġhil": 35237,
  "]**": 49788,
  "ä¸īç±»": 73504,
  "ìĹ¼": 76719,
  "Free": 21431,
  "ocalypse": 86190,
  "otho": 126771,
  "ophers": 42775,
  "UNCTION": 114843,
  "Ġinvoluntary": 83679,
  "Ġwire": 11167,
  "icut": 32982,
  "Ġpoised": 61001,
  "ĠSUP": 66283,
  "Ġgram": 12848,
  ".options": 123222,
  "èµ·åĪ°": 25446,
  "Ġfuck": 30256,
  "Ġaggregate": 27855,
  "ular": 1182,
  "ĠìĹĨ": 29709,
  "Ġmechanically": 82174,
  "Ġsparked": 56385,
  "åĦĢ": 47296,
  "æĽĻ": 69223,
  "çĶ¨æīĭæĮĩ": 109445,
  "éŁ¦": 23454,
  "è½¬éĢŁ": 48203,
  "Ġanjara": 39731,
  "pain": 73222,
  "Ġsheet": 12909,
  "è§£æĶ¾æĢĿæĥ³": 100336,
  "à¸ľà¸¹": 112977,
  "ĠÙĬØ¤Ø¯ÙĬ": 112271,
  "å¤§æīĵ": 114686,
  "ä½ķåħ¶": 125564,
  "ĠTulsa": 114720,
  "amera": 36170,
  "ĠMortgage": 69282,
  "æıį": 64989,
  "Ġdisobedience": 106847,
  "Ġinformally": 123979,
  "çļĦçĥŃçĪ±": 117882,
  "åľ¨ç½ĳä¸Ĭ": 65663,
  "Ġseq": 42537,
  "Zen": 91203,
  "Ġmashed": 104864,
  "èĤ¥": 8676,
  "unknown": 68190,
  "Ġwritings": 34156,
  "èªĺ": 80980,
  "é¢Ĩçķ¥": 85426,
  "ĠMike": 18734,
  "è§īå¾Ĺå¾Ī": 73321,
  "çı¾": 5239,
  "Vision": 91311,
  "checkbox": 78877,
  "ÐµÐ½Ñĭ": 23416,
  "éĩįæķ´": 107401,
  "ĠRecently": 40120,
  "æ§¿": 100713,
  "Ġnorthern": 16561,
  "_]": 100430,
  "ĠÏĥ": 6931,
  "å¦»": 9199,
  "å»Ł": 85040,
  "rags": 110073,
  "Ĺ×ł×ķ": 90396,
  "ä¹ŁåºĶ": 69935,
  "ĠWelt": 35363,
  "Paths": 82670,
  "esia": 61192,
  "åĵ¡": 10916,
  "ç³»åĪĹæ´»åĬ¨": 75475,
  "};ĊĊ": 12797,
  "ĠkaÅ¾d": 69988,
  "Child": 21803,
  "ĠHO": 44150,
  "onomics": 124095,
  "åĳ¨äºĶ": 59237,
  "åľ°çľĭçĿĢ": 33932,
  "Ġcalling": 14134,
  "Ġprecise": 19041,
  "åı¯èĥ½": 2431,
  "ooky": 111759,
  "ĠÅ»": 71045,
  "ĠStatistical": 32932,
  "ĠMascul": 108611,
  "å¾Īåĸľæ¬¢": 62026,
  "ä¸įèĤ²": 112317,
  "ĠaÅ¼": 125506,
  "ĠRenal": 94697,
  "åĪĨæŀĲå¸Ī": 80338,
  "Ġantecedent": 120719,
  "ĠApplying": 64350,
  "à¦¬à§ĩ": 27497,
  "æĳĨèĦ±": 35848,
  "ademia": 101682,
  "äº¤ç»ĻäºĨ": 112176,
  "æľįä»İ": 38099,
  "868": 31779,
  "Ġset": 1341,
  "ç»ĵç®Ĺ": 29797,
  "AX": 28984,
  "Ġencomp": 24658,
  "Ġconstituting": 84345,
  "Bruce": 102007,
  "ä»¥çĤº": 39947,
  "Ġembroidery": 112738,
  "ĠUnderstand": 42369,
  "å®ĺåħµ": 49250,
  "fun": 24389,
  "çī©è´¨": 9299,
  "317": 18573,
  ".pre": 49821,
  "<｜place▁holder▁no▁326｜>": 128326,
  "çļĦç§ĳåŃ¦": 66470,
  "å¤ľçļĦ": 79656,
  "ĠMadag": 72182,
  "Bearer": 122649,
  "Predict": 101900,
  "Ġ%Ċ": 102988,
  "ra": 337,
  "igital": 81809,
  "Ġsens": 3704,
  "åħĪ": 1735,
  "ÅĽli": 39049,
  "å¹¿æĴŃ": 23627,
  "Ġtall": 14725,
  "ĠDart": 69866,
  "ĠdÃ©m": 76044,
  "Ø¨Ùĩ": 20059,
  "æ½®æµģ": 48633,
  "Ġ//": 1915,
  "ĠLov": 47121,
  "Ġaccumulate": 48836,
  "Ġscary": 45235,
  "Ġpleasing": 56239,
  "é¦ĭ": 96837,
  ".getLogger": 106837,
  "âĢľ(": 114865,
  "STRACT": 43397,
  "åıĪè¢«": 50667,
  "ĠÑĤÑĥÑĢ": 96817,
  "Ġcleans": 48882,
  "Ġpension": 29417,
  "ummer": 50565,
  "ĠAction": 15703,
  "Ġà¦ªà§Ĥà¦°à§įà¦¬": 113710,
  ",in": 98279,
  "vious": 2999,
  "Ð½Ð¾Ð²": 4277,
  "NAM": 63883,
  "å¹´åīį": 13275,
  "å·²å®ĮæĪĲ": 75722,
  "Courses": 106069,
  "ĠØªÙĪØµ": 89161,
  "_keys": 85708,
  "åŁİå¸ĤçļĦ": 35512,
  "ĠPoz": 57256,
  "æ£Ģå¯Łå®ĺ": 79330,
  "ĠÑĢÐ°Ð±Ð¾ÑĤÐ°ÑĤÑĮ": 98413,
  "ĠMole": 72443,
  "æĢĿæĶ¿": 80162,
  "×ķ×ĳ×": 54770,
  "Ġnilai": 54727,
  "çļĦçĽ®åħī": 34531,
  "ç¨": 884,
  "å°Ķ": 3203,
  "ä¸ĸçķĮåĲĦåľ°": 102014,
  "Ġresponds": 44959,
  "Ġreductions": 44639,
  "ĠpersÃ¶n": 116859,
  "Ġdisliked": 119215,
  "Ġcataly": 62666,
  "ĠEnero": 15929,
  "ounds": 4201,
  "ĠLa": 4176,
  "æ¡ĥåŃĲ": 98182,
  "-run": 33711,
  "Ø§ÙģØ¸": 58685,
  ".per": 80157,
  "ðĲ": 120577,
  "Ġinc": 2871,
  "å¦Ĥæ°´": 93196,
  "Ġsauce": 19816,
  "èķĬ": 49908,
  ".support": 69909,
  "åŃĺçļĦ": 53464,
  "ĠSad": 32596,
  "ç¾¯": 96577,
  "Bow": 99179,
  "Ġcrosses": 49960,
  "ivables": 117930,
  "å¤ĸåĽ½è¯Ń": 84508,
  "ĠÐ¾Ð±ÐµÑģÐ¿Ðµ": 38131,
  "Ġrij": 113095,
  "åĨįæĹł": 116125,
  "Ġsprings": 48985,
  "Î³Î¬": 97732,
  "Ġleb": 20187,
  "æĺİäº®": 53179,
  "eco": 82832,
  "gester": 68513,
  "yle": 3055,
  "é²ľæĺİçļĦ": 68441,
  "ĠPa": 4471,
  "Ã¶ÃŁ": 50862,
  "æĽ´éľĢè¦ģ": 86757,
  "æĪ·å¤ĸ": 39142,
  "ĠShows": 82213,
  "ĠØ§ÙĦÙĪ": 21284,
  "å·ħ": 39115,
  "äºĨäºĽ": 51216,
  "oil": 72964,
  "ĠÐ°ÑĤÐ¼Ð¾Ñģ": 109575,
  "Ġjamais": 58242,
  "çĿ£": 5859,
  "åįĬå¤©": 33856,
  "Ġretaliation": 89219,
  "-De": 103826,
  "ĠTorres": 55724,
  "267": 17889,
  "å±ĢåŁŁç½ĳ": 110565,
  "æ¯ıä¸Ģä¸ª": 15653,
  "ä¸įè®ºæĺ¯": 68456,
  "Ġinvoice": 62869,
  "ĠTomorrow": 68384,
  "Ġeins": 84714,
  "ĠBek": 73193,
  "ĠMittel": 62172,
  "Ġvisualization": 38645,
  "Ð»ÐµÐ´": 9685,
  "çļĦå¥³åĦ¿": 83170,
  "ĠWorlds": 83002,
  "è¿Ļä¸ĢåĪ»": 66189,
  "åĨ·äºĨ": 126116,
  "Ġ×Ķ×ŀ×ª×": 108609,
  "rystal": 33018,
  "fÃ¼r": 123436,
  "Ġrode": 39109,
  "äº¤çº³": 90666,
  "englanniksi": 66542,
  "Ø§Ø¦ÙĬØ©": 40592,
  "éĩĩ": 2843,
  "å®¸": 44518,
  "zeh": 105653,
  "ç¢±æĢ§": 65194,
  "æŀģå¼ºçļĦ": 114429,
  "å°±å·²ç¶ĵ": 109824,
  "/widget": 112143,
  "ettle": 64721,
  "çģ¾éļ¾": 43029,
  "+Ċ": 27344,
  "gment": 28906,
  "rupted": 48585,
  "Ġsuficiente": 99907,
  "ĠÎĳ": 15774,
  "æĢ»çļĦ": 41608,
  "ĠÐ¿ÑĢÐ¸Ð¼ÐµÐ½ÐµÐ½Ð¸Ðµ": 122864,
  "ĠRif": 73252,
  "aturated": 38441,
  "è§Ĵåº¦": 11416,
  "Ãł": 3221,
  "Ġthresholds": 60413,
  "GN": 35176,
  "Ġgosp": 66684,
  "Ġ\"_": 49417,
  "åľ¨ä¸ĢåĿĹ": 126623,
  "à§ģà¦²": 18725,
  "ä»¬åľ¨": 56260,
  "onds": 21939,
  "Ġinvece": 72734,
  "Òĵ": 44679,
  "Ġ..Ċ": 127570,
  "Secondary": 73548,
  "Ġfriction": 28076,
  "lict": 27403,
  "Ġpredicts": 50635,
  "ĠOR": 11125,
  "ÑĪÑĥÑİ": 88409,
  "ĠMinneapolis": 63032,
  "Ġescrito": 88627,
  "andray": 38587,
  "ĠDouglas": 31125,
  "imburs": 45719,
  "sil": 53112,
  "...#": 55233,
  "æĪĳä»¬åı¯ä»¥çľĭåĪ°": 111117,
  "ĠØ§ÙĤØªØµ": 64336,
  "åĩĿåĽº": 60838,
  "æĽ´æĸ°çļĦ": 91040,
  "Ġkey": 3077,
  "ĠCluster": 60382,
  "èĢĮå½¢æĪĲçļĦ": 127228,
  "Ġpriming": 121743,
  "stein": 11321,
  "ãĢĭï¼ļâĢľ": 74415,
  "Ġble": 10743,
  "Ġretailer": 64179,
  "ä¸ĢçĶŁ": 21993,
  "<｜place▁holder▁no▁272｜>": 128272,
  "æĢĿç´¢": 46583,
  "4": 22,
  "è½»å¾®çļĦ": 118820,
  "ĠGiven": 17988,
  "à¸£à¹Īà¸§à¸¡": 62455,
  "ì´Ī": 51380,
  "Earlier": 62260,
  "ĠÎ¿ÏĢÎ¿Î¯": 109907,
  "çªģçł´åı£": 102288,
  "isin": 54955,
  "ç¥ŀåľ£": 52439,
  "Ġiso": 55482,
  "Ġ×ķ×ª": 67086,
  "Ġbranching": 70387,
  "à¥įà¤Ľ": 112569,
  "çĮĽ": 11345,
  "Ġmultifaceted": 63596,
  "ĠTaiwan": 26283,
  "é¼": 4088,
  "Ġmilitants": 92365,
  "ä¸Ńåįİäººæ°ĳåħ±åĴĮåĽ½": 23652,
  "zing": 11674,
  "Ġtornar": 120639,
  "ĠPractical": 38080,
  "æĶ¶å®ĺ": 127762,
  "\"\\": 72498,
  "ukur": 109281,
  "Ġrecom": 31811,
  "ĠValk": 108141,
  "Ġallergen": 118281,
  "ATP": 58744,
  "æĪĳä»¬æ²¡æľī": 98223,
  "åĢ¼æĹ¶": 118974,
  "Ġ&.": 67196,
  "ĠDirty": 126561,
  "ÙİØ§": 37474,
  "ACS": 42826,
  "ĠTesting": 27445,
  "ĠUniversity": 3004,
  "ando": 5007,
  "Ġjul": 39370,
  "è¡ĮåĬ¨çļĦ": 111718,
  "æĺ¯åĲ¦": 5402,
  "ä¸ŃåĽ½æ¢¦": 96922,
  ",$": 21447,
  "è¿·æĥĳ": 66479,
  "å®ŀåĲį": 88997,
  "),_": 108031,
  "Ĳ": 241,
  "è¾²æĿĳ": 119612,
  "stoffen": 103283,
  "æ²īç¨³": 93134,
  "Ġnaturales": 105290,
  "181": 8939,
  "çĸ²": 16547,
  "ables": 3208,
  "Ġshudder": 83980,
  "è§£å¯Ĩ": 109911,
  "Ġmessengers": 113924,
  "Ġmembership": 22932,
  "çıłæ±Ł": 96491,
  "âŃĲâŃĲ": 111862,
  "æģĲæĩ¼": 122136,
  "èĮ²": 109692,
  "çŀħ": 59325,
  "Ġtutor": 43751,
  "ulaÃ§Ã£o": 103134,
  ",**": 22233,
  "Ġagreements": 23840,
  "Ġdeven": 104387,
  "ĠInformal": 106050,
  "Ġmagnetic": 12587,
  "Lu": 40573,
  "å©": 3113,
  "Ġshoulders": 24779,
  "åĲĮä¸Ĭ": 56287,
  "çļĦå¤´": 54551,
  "Ġrotting": 123227,
  "Ġpredatory": 104639,
  "ĠGrig": 92199,
  "fico": 48122,
  "æ¡ĵ": 46800,
  "ĠZone": 31148,
  "stand": 2005,
  "ÏħÎ¼Î¿": 24044,
  "ĠÐ²Ð¸Ð´Ñĭ": 90451,
  "Ġlocation": 6830,
  "Ġapost": 33924,
  "ç¾İè²Į": 108871,
  "guan": 85127,
  "Ġretrospect": 68715,
  "åºĶè¯¥åľ¨": 84104,
  "Ġartillery": 57526,
  "ĠroÅĽlin": 96366,
  "ä¸īæľŁ": 123809,
  "åŃĺåľ¨": 4162,
  "Ġclose": 5010,
  "MEN": 126365,
  "ĠAbd": 28063,
  "ĠØ¨ØŃØ«": 82690,
  "æ·Ģç²ī": 43267,
  "æĿĨ": 10377,
  "ãĤĬãģ¾ãģĻ": 25184,
  "éĿ¢åŃĲ": 43802,
  "å¤ľæ·±": 127601,
  ".trans": 32540,
  "ĠFitness": 59218,
  "cido": 45270,
  "(other": 79490,
  "UF": 39469,
  "Ġmutated": 101488,
  "Ġhybridization": 67715,
  "ĠBelgrade": 117515,
  "æł·å¼ı": 39391,
  "ç¢±": 19382,
  "bare": 45632,
  "ÑĤÐµÑĢ": 16487,
  "Ġbiztanle": 92567,
  "æĥħåĨµåĴĮ": 66503,
  "_session": 106816,
  "umbai": 43203,
  "Ġvest": 29733,
  "atÃ³": 45669,
  "Ġphysiological": 28073,
  "Ã¼let": 61859,
  "çŃĳçī¢": 69638,
  "ĠOrganic": 38746,
  "à¨®": 99151,
  "åĽ½åĬĽ": 125697,
  "ãĥĽ": 47424,
  "ography": 5338,
  "Need": 50249,
  "Ġhorizontally": 62818,
  "æĬĹåİŁ": 51056,
  "ä¸Ģä¾§": 60344,
  "dating": 81118,
  "+N": 82532,
  "ĠToyota": 55838,
  "ĠrozwiÄħz": 122142,
  "ĠÐ¢Ð¸": 88803,
  "Ø§ÙĤØ§Øª": 87118,
  "-assessment": 107922,
  "Ġhonored": 47871,
  "-thirds": 52818,
  "Ð¼Ð¾Ñģ": 82749,
  "ermont": 111399,
  "etas": 71643,
  "Ġarrows": 46070,
  "Ġ_âĢľ_": 117160,
  "×ľ×ŀ×Ļ×ĵ": 89588,
  "Ġfazer": 45624,
  "ĠXxxxx": 64867,
  "æĬµå¾¡": 70567,
  "Ġlaborers": 94827,
  "åľ°éģĵ": 44750,
  ">;Ċ": 49962,
  "cond": 1511,
  "ynn": 59802,
  "Ġrecording": 16071,
  "å¤ªå¤§äºĨ": 94073,
  "ĠÙĬÙĪÙĨ": 92917,
  "è¿ĩåįĬ": 126786,
  "Ġperennial": 61089,
  "áĥĿáĥľ": 106128,
  "Ġextrac": 77885,
  "å¦ĤåĽ¾æīĢç¤º": 52638,
  "Msg": 46919,
  "ÑĢÐ¾Ð½Ð¸": 80652,
  "vall": 75367,
  "Ġoverexpression": 84855,
  "ĠÐ»Ð¸": 8700,
  "Ġneedle": 30299,
  "Ñĥ": 649,
  "-disc": 81827,
  "Ġaandacht": 121606,
  "Ġjut": 123073,
  "Ø§Ø¦ÙħØ©": 90689,
  "eldorf": 121705,
  "åĮ»æĬ¤": 48923,
  "girl": 64913,
  "Ġglanced": 36964,
  "Cells": 87661,
  "à¦ļà§įà¦ļ": 82265,
  "Ġretailers": 42619,
  "UIT": 59749,
  "Ġverschill": 51482,
  "ĠinformaÃ§Ã£o": 116327,
  "Ġtect": 62217,
  "elas": 72564,
  ".create": 19705,
  "ê³Ħ": 19787,
  "Ġinteracts": 64824,
  "Ø®ÛĮØµ": 121785,
  "ç»ıæµİä½ĵ": 124988,
  "éĥİ": 13568,
  "ĠArmen": 35035,
  "Ġfinalmente": 117896,
  "Ã«n": 55299,
  "eded": 32040,
  "ĠSaysay": 57114,
  "èĥ½å¤Łå¾ĹåĪ°": 122236,
  "Ġbot": 19734,
  "åĨįåĪ©çĶ¨": 117251,
  ".âĢĿ.": 52445,
  "_message": 53735,
  "Ġpacked": 26396,
  "======Ċ": 86669,
  "Ġzar": 54352,
  "Ġell": 11002,
  "åĬłçĽŁ": 49064,
  "Met": 24826,
  "leness": 55492,
  "ä¼Ļé£Ł": 120443,
  "åĢ«": 50769,
  "Ġcovariates": 114298,
  "ÃŃk": 89971,
  "ĠYard": 55416,
  "-thinking": 117877,
  "ĠArchitectural": 90436,
  "Ġscripting": 104025,
  "éĸĵ": 5257,
  "ĠCooke": 109556,
  "Ġdissimilar": 82040,
  "Ġsunshine": 39780,
  "ĠGli": 73803,
  "å¥½åĩł": 61484,
  "åĵŃç¬ĳä¸įå¾Ĺ": 109668,
  "_method": 69835,
  "fw": 76909,
  "Ġu": 549,
  "Ġgihulagway": 61764,
  "Ġattraverso": 60068,
  "äºĨä¸Ģç³»åĪĹ": 51240,
  "Ġsuffering": 16021,
  "052": 28646,
  "éĿĴåħī": 122596,
  "=|": 119596,
  "ĠEE": 51575,
  "Ġ×ĸ×Ĳ×ª": 78064,
  "------------------------------------------------": 48738,
  "æµģåŁŁ": 50124,
  "HO": 40887,
  "ç»ĿæľĽ": 43806,
  "ArgumentException": 80529,
  "Ġunlocks": 110325,
  "äººåİ»": 94276,
  "-ind": 25936,
  "udy": 46663,
  "Ġpolyp": 74967,
  "Ġander": 54552,
  "Ġmodulator": 110206,
  "ĠIowa": 29576,
  "ĠMeas": 44906,
  ".Base": 78700,
  "endre": 82926,
  "Ġ×ŀ×Ĵ": 62857,
  "ulta": 37785,
  "ä¹Įäºĳ": 97235,
  "ĠÐ³Ð¾ÑĢ": 20355,
  "ars": 1933,
  "äººæķĻçīĪ": 78470,
  "Ġgadgets": 90071,
  "åĤ»åŃĲ": 70923,
  "Env": 82159,
  "Ġprocessing": 8037,
  "Ġglimpses": 119943,
  "Ġespos": 121677,
  "Ġabound": 101965,
  "ĠADC": 77623,
  "ĠGrass": 47824,
  "Ġirrit": 22943,
  "åĪĩéĻ¤": 37776,
  "Ġmotility": 92904,
  "è¡Įæĥħ": 32960,
  "ĠHere": 5592,
  "fielder": 74770,
  "endent": 34676,
  "å®ŀè·µè¯ģæĺİ": 110387,
  "Ġihn": 59501,
  "Ġtheological": 48017,
  "Ġphrases": 25629,
  "æľīæĺİæĺ¾çļĦ": 122206,
  "Ġdort": 65274,
  "ĠNOTES": 112067,
  "mission": 5369,
  "äº§ä¸ļåĽŃ": 67520,
  "ĠÑıÐ²Ð»Ñı": 17096,
  "è¿Ļä¸ªè¯Ŀé¢ĺ": 123635,
  "Ġlunch": 17980,
  "ĠChecklist": 19901,
  "çļĦå°ıå§ĳå¨ĺ": 120441,
  "è¡¨çı¾": 35537,
  "èĲĿåįľ": 31834,
  "æĳ¹": 74266,
  "aks": 9216,
  "Ġassays": 45717,
  "Inf": 29305,
  "_SP": 108239,
  "é¤Ĳé¥®": 33293,
  "ĠSabb": 60289,
  "ä¸«é¬Ł": 74839,
  "Ġware": 32056,
  "Ġperd": 38075,
  "ĠJade": 91020,
  "ë¯": 16395,
  "Ġechoing": 102725,
  "essive": 63474,
  "jas": 41807,
  "quite": 100746,
  "æİĢ": 31411,
  "Ġconjugation": 85589,
  "ĠOro": 114866,
  "+t": 78280,
  "iments": 7078,
  "Survey": 83379,
  "tid": 99252,
  "Azalera": 123239,
  "ç¤ºä¾ĭ": 31669,
  "DOM": 60187,
  "ðĿĳĩ": 90306,
  "ifera": 61283,
  "è¿ĩ": 796,
  "dec": 23077,
  "imbing": 78240,
  "ç®Ń": 15477,
  "èĢĮä¸Ĭ": 44543,
  "è¿Ļæĸ¹éĿ¢": 68162,
  "According": 12688,
  "Ġauthorities": 14216,
  "ĠPlatt": 121003,
  "(models": 106290,
  "çŁŃæĸĩ": 96840,
  "Ġcurv": 40889,
  "æĪĴæ¯Ĵ": 126261,
  "æĶĶ": 92964,
  "Ġarbitr": 70559,
  "æľĢå¤ļ": 21676,
  "åĪĨéĴŁ": 8884,
  "ĠAccesses": 91550,
  "riko": 100420,
  "å¦Ĥæŀľä»ĸä»¬": 122505,
  "ciÃ³n": 9562,
  "ĠForce": 17084,
  "ĠJesÃºs": 82509,
  "å¤±è¡¡": 83603,
  "ÑĪÑĤÐ°": 63561,
  ".i": 32696,
  ")+": 12754,
  "ĠÃ¡gua": 59943,
  "Ġimplication": 51021,
  "ãĤ¯ãĥª": 75232,
  "Ġ)ãĢģ": 54348,
  "å½±åĵį": 3412,
  "Ġà¦°": 12957,
  "çŁ¥åĲį": 26029,
  "ĠØªØ¬": 26226,
  "essions": 14582,
  "<｜place▁holder▁no▁242｜>": 128242,
  "ãģķãģĽãĤĭ": 81587,
  "ografie": 68376,
  "âĸ¡âĸ¡": 52771,
  "Ġlitre": 93005,
  "airo": 37497,
  "è´Łæľī": 84985,
  "ç¬º": 96344,
  "layson": 49664,
  "Discovery": 119022,
  "ĠWilder": 117543,
  "ÎºB": 83085,
  "ĠCourse": 19117,
  "åĳĺå·¥": 9534,
  "Ġstagnant": 107445,
  "ĠTYPE": 60648,
  "Recall": 104200,
  "æĤ£æľī": 54280,
  "æ»´": 11115,
  "Ġunbelie": 69311,
  "èµļéĴ±": 32462,
  "Liter": 47150,
  "Ġerre": 49724,
  "æīįåįİ": 56899,
  "Ġexclude": 39692,
  "rimin": 64127,
  "imb": 9103,
  "éĤ£éģĵ": 95126,
  "-hist": 115429,
  "ĠCoral": 86524,
  "è¢«æī§è¡Įäºº": 120478,
  "åŃĲåĴĮ": 37374,
  "Ġdistraction": 62805,
  "ĠTurtle": 94636,
  "åĲĳæĪĳä»¬": 85310,
  "Est": 15167,
  "æĺ¯å¯¹çļĦ": 112126,
  "ĠCardiovasc": 103150,
  "æ»¥": 34160,
  "Ġtao": 55903,
  "ÈĽii": 117570,
  "éĭ": 21406,
  "Worker": 77981,
  "Ġdegli": 26902,
  "Ġimperson": 117575,
  "æ¶Īè´¹èĢħçļĦ": 46221,
  "Ġsummit": 41511,
  "Bon": 52015,
  "Ġá¼Ĳ": 31027,
  "urtle": 65166,
  "ĠÐ¸Ð¼": 27332,
  "CN": 13663,
  "ç»¢": 89091,
  "æİĴæĶ¾": 26595,
  "HPV": 109904,
  "Linda": 125174,
  "icans": 53779,
  "çĮĽçļĦ": 86343,
  "åĺ´è§Ĵ": 28345,
  "Ġexposes": 81547,
  "cad": 67380,
  "Cyber": 122297,
  "ĠNej": 111522,
  "Ġpurported": 112737,
  "Ġfrustrations": 110438,
  "printf": 15626,
  "_dist": 60817,
  "çļĦéŃħåĬĽ": 97293,
  "ØªÙĤØ¯": 102432,
  "Ġthemselves": 5744,
  "à¸Ħà¸¥": 32327,
  "ĠChief": 15353,
  "å¤§æīĭ": 70115,
  "Ġrelax": 12460,
  "å®¶éķ·": 98634,
  "ĠHawai": 25549,
  "æĸ°å¢ŀ": 25067,
  "ĠLM": 44414,
  "ç»Ĩå¾®": 70354,
  "ĠDurham": 64081,
  "ĠThirty": 46040,
  "åĪ¤": 4573,
  "à®¤à¯ģ": 40479,
  "åĤ³çµ±": 57654,
  "<｜place▁holder▁no▁463｜>": 128463,
  "ĠØ¬ÙħÙĬØ¹": 55762,
  "åīįè¾Ī": 41704,
  "sage": 112376,
  "Ġinauguration": 121397,
  "ĠHussain": 115713,
  "Ġchic": 105465,
  "ĠIncidence": 112494,
  "Ġafterwards": 35333,
  "#ifdef": 96248,
  "ãĥ³ãĤ¸": 91269,
  "ĠÐ½Ð°ÑģÑĤÐ¾ÑıÑīÐµÐµ": 107207,
  "apr": 75224,
  "ĠRelief": 58145,
  "ĠMo": 10192,
  "Ġillustrious": 119153,
  "ĠSchoen": 118489,
  "æµĭ": 2679,
  "Genre": 46772,
  "à¥ĭà¤§": 81504,
  "å¾·åĽ½": 16587,
  "èĦ¸åºŀ": 125805,
  "hart": 42879,
  "éĵ¿": 99500,
  "ÏīÏĤ": 41180,
  "Ġì´Ī": 48271,
  "achten": 57394,
  "à¸Ľà¸£à¸°à¸¡à¸²à¸ĵ": 87133,
  ",''": 87769,
  "ł×Ķ": 20645,
  "ĠÅ¡k": 55668,
  "åħĪçĶ¨": 67068,
  "è§£åĨ³æĸ¹æ³ķ": 93624,
  "Ġcomplexes": 31652,
  "ĠÑĥÑĩÐ°ÑģÑĤÐ¸Ðµ": 92175,
  "$-": 62637,
  "ĠIllegalArgumentException": 124728,
  "ĠArticles": 28094,
  "ĠAAP": 125272,
  "unc": 7082,
  "ÑģÐ¸ÑĤÑĮ": 91939,
  "discipl": 121959,
  "åĲĮåŃ¸": 56330,
  "æīĵåĮħ": 61278,
  "shift": 39244,
  "çĵ¦": 11653,
  "è¿Ļä¸¤å¤©": 84178,
  "Ġbetrayal": 78640,
  ";(": 22969,
  "Ġrazor": 96832,
  "Ġversus": 14842,
  "æīĵéĩı": 42848,
  "ĠAgr": 127809,
  "Ġfors": 72630,
  "Ġê²Į": 76353,
  "ä¹°ä¸ľè¥¿": 114431,
  "ãģ¨ãģªãĤĭ": 61397,
  "ÑĬÐµÐ¼": 95539,
  "oval": 29026,
  "ĠScarlet": 109843,
  "ï¿¥": 102703,
  "Ġbelly": 42963,
  "ĠChromat": 93748,
  "Ġcerebell": 72721,
  "à¸«à¸Ļà¸Ķ": 80698,
  "Ġtong": 20126,
  "æ²¿çº¿": 69257,
  "åįģè¿ĽåĪ¶": 113314,
  "env": 17821,
  "æ²»çĲĨ": 13113,
  "æĿ¥è¯´æĺİ": 101446,
  "èĲ±": 46406,
  "icing": 11447,
  "æĹ¶éĹ´": 2130,
  "ĠEducaciÃ³n": 78232,
  "ONY": 90173,
  "è½¼": 64894,
  "è±Į": 103586,
  "ä¼ĺæĥł": 26972,
  "Ġkinematics": 119394,
  "åīµ": 19211,
  "å°ıç»Ħ": 13875,
  "Ġprevents": 30685,
  "George": 42113,
  "rink": 94775,
  "ĠMeans": 65919,
  "å©īåĦ¿": 127332,
  "ÑĤÐ°ÑĢ": 48555,
  "iÃ³d": 110125,
  "ĠMuir": 115741,
  "Ġlongo": 85541,
  "ĠLucky": 82153,
  "åģıé«ĺ": 101080,
  "ĠIdi": 75564,
  "Ġpromoter": 45000,
  "onc": 50634,
  "Ġstandardization": 87550,
  "ãĤĩ": 20222,
  "Ġunt": 2754,
  "íĪ¬": 93445,
  "stown": 60921,
  "ä½ķå¤Ħ": 54867,
  "ĠâĶľ": 105533,
  "Ġespec": 4325,
  "ç¾İæľ¯åŃ¦éĻ¢": 108827,
  "×ķ×¦×¨": 103256,
  "dar": 41122,
  "Ġsiding": 126501,
  "ogels": 112318,
  "é»ĳèī²": 18956,
  "åĪĺæŁĲ": 97619,
  "à¹ģà¸Ĥ": 60366,
  "Ġwarranty": 49522,
  "Ġwholly": 41255,
  "æĸ¯å¡Ķ": 70784,
  "-made": 33914,
  "Ġactors": 21180,
  "åĮĹéŃı": 118832,
  "Ġsubclass": 88256,
  "Ġsilic": 66536,
  "either": 61528,
  "Ġpronto": 127869,
  "çĶŁæľº": 47118,
  "Î¹ÎºÎ¿Î¯": 99463,
  "çļĦåŁİå¸Ĥ": 45544,
  "æĺ¥æĹ¥": 114649,
  "{v": 39640,
  "à§ĩà¦®à§įà¦¬à¦°": 97345,
  "Ġfibonacci": 55155,
  "Ġmasc": 77844,
  "à®ªà¯į": 73670,
  "Top": 17962,
  "(i": 6600,
  "ĠdoÅĽwiad": 109688,
  "Ä±m": 77354,
  "å¯¹è§Ĩ": 76966,
  "ynd": 113234,
  "Ġstriving": 63272,
  "Ġlois": 111290,
  "Ġinset": 113112,
  "å¸¸çĶ¨çļĦ": 29222,
  "Ġurge": 36565,
  "è¿Ľåħ¥äºĨ": 41308,
  "ä¸Ģæĥ³": 45509,
  "ÙĪØ¯Ùĩ": 69478,
  "åĭŁ": 23328,
  "*f": 23845,
  "ĠintÃ©g": 92117,
  "ÑĢÑĥÐ´": 47034,
  "ĠEthics": 33609,
  "Ġseized": 42927,
  "Ġstory": 4093,
  "ĠÐ½ÐµÐ´Ð¾ÑģÑĤÐ°": 61829,
  "Ġtek": 29967,
  "Ġsouls": 36743,
  "Ġperce": 39477,
  "Ġendurance": 49202,
  "sep": 88351,
  "ĠpÃ³Åº": 104949,
  "æĶ¶è´§": 106154,
  "instructions": 123334,
  "-san": 98757,
  "Ġneck": 14544,
  "Ġstare": 47384,
  "ãĢĤãĢĮ": 42008,
  "ĠÐ»ÐµÑĩÐµÐ½Ð¸Ñı": 63653,
  "269": 17895,
  "ĠMcCain": 98004,
  "èīºæľ¯åŃ¦éĻ¢": 124351,
  "åĲĮæĹ¶": 3437,
  "ç´¯è®¡": 23029,
  "ä¸Ńå¹´äºº": 115114,
  "å¤ĩåıĹ": 56772,
  "éĺ¶çº§": 14043,
  "Ġscientist": 31521,
  "âĪĴĊ": 120225,
  "berg": 6870,
  "Ø¨ÙĬØ±": 44416,
  "Vous": 98752,
  "Ġtransformers": 98918,
  "åºĶç¨İ": 93389,
  "/l": 7923,
  "åĤ²æħ¢": 97582,
  "ĠReducing": 76745,
  "Ġacknow": 12212,
  "ĠTorn": 89639,
  "ont": 1039,
  "Ġserait": 73612,
  "cpu": 108348,
  "ulu": 23178,
  "ĠChoose": 25054,
  "è¾ħ": 9869,
  "ĠSTS": 120833,
  "prepare": 98274,
  "ĠArchie": 116258,
  "cimiento": 63276,
  "ĠÑĢÐ°ÑģÑĤÐµÐ½Ð¸Ñı": 74504,
  "ä¸ĭä¸Ģç¯ĩ": 79678,
  "ĠEusk": 105694,
  "ylus": 95346,
  "rema": 103757,
  "ini": 4981,
  "Ġà²Ĺ": 114654,
  "Ġà¦ħà¦¨à§ĩà¦ķ": 64264,
  "Inflater": 90355,
  "377": 20628,
  "åĨĽå§Ķ": 97119,
  "æĽ°": 10625,
  "ĠãĢĭ": 27455,
  "<｜place▁holder▁no▁430｜>": 128430,
  "Ġfunk": 61117,
  "Ġcurse": 49743,
  "ĠÐ¡Ð¸": 44677,
  "èĬİ": 107557,
  "dura": 116301,
  "Ġlevy": 79973,
  "ç½ĳè´·": 119581,
  "Ġinhibition": 27333,
  "çļĦå½¢æĪĲ": 50612,
  "åģī": 56116,
  "ĠEp": 10927,
  "çļĦäººæĺ¯": 87715,
  "upport": 27232,
  "åĤ¢ä¼Ļ": 116355,
  "ĠLuxemb": 63064,
  "à¹Īà¸²à¸Ļ": 22445,
  "ĠÑģÐ²Ð°": 103000,
  "_id": 5165,
  "duino": 52132,
  "ĠÐ¿ÑıÑĤÑĮ": 66459,
  "crystalline": 122201,
  "_front": 111115,
  "è¾¾æĪĲ": 27843,
  "ĠCandidate": 62902,
  "Ġeloqu": 85841,
  "ä¸ĸçķĮä¸Ĭ": 19344,
  "erna": 50607,
  "æľīä»Ģéº¼": 76964,
  "matically": 62565,
  "ç§ĳåŃ¦æĢ§": 127403,
  "orange": 83471,
  "jal": 32864,
  "ABASE": 88572,
  "å®Īåľ¨": 117172,
  "é¥®çĶ¨æ°´": 91875,
  "ØªÙĪ": 56375,
  "çĽ¸åħ³æĢ§": 75670,
  ".mock": 100170,
  "BJ": 119903,
  "Ath": 101799,
  "Ġtension": 17599,
  "çļĦå¹³åı°": 90815,
  ".pptx": 95089,
  "Ġsecurities": 28312,
  "Ġclimbs": 112547,
  "ĠMilwaukee": 65394,
  "ĠÐ¸Ð·ÑĥÑĩ": 66797,
  "Ġprovenance": 125633,
  "ãĤ¢ãĥ¡ãĥªãĤ«": 82492,
  ".lang": 44722,
  "Du": 24693,
  "ĠØ¯ÛĮØ¯": 89142,
  "çļĦè´¨éĩı": 34298,
  "èĪĮ": 16518,
  "èª°": 21437,
  "nosti": 35570,
  "å¦Ĥæŀľåı¯ä»¥": 114621,
  "Ġtail": 11104,
  "Ð¼ÐµÐ½ÑĮ": 42221,
  "ĠEthical": 57162,
  "ç¤¾ä¼ļç»ıæµİ": 69098,
  "æ¯Ķä¾ĭä¸º": 111049,
  "åĪĨåĪ«åľ¨": 93201,
  "ä¸ĭè¾¾": 52983,
  "éĭĴ": 56471,
  "ĠDash": 76514,
  "ãģ«å¯¾ãģĻãĤĭ": 92969,
  "elfare": 17537,
  "ĠUltra": 60101,
  "ĠdalÅ¡ÃŃ": 61716,
  "-Dr": 102030,
  "åįģä¸ĩ": 53434,
  "Ã³i": 86099,
  "Ġvr": 71136,
  "ĠhÃ¬nh": 71995,
  "éŀĭåŃĲ": 53841,
  "Ġë°±": 84143,
  "æłĩæĺİ": 96857,
  "à§ģà¦¦à§įà¦§": 62726,
  "ä¸ĢåĲ¬": 41881,
  "à¤Ĥà¤Ĺ": 106430,
  "ä¾¿åĪ©åºĹ": 117969,
  "Å¥": 31570,
  ".db": 42299,
  "Ġformulas": 33267,
  "Ġfluores": 25390,
  "ä¸Ģå¹´": 10061,
  "Ġ×ŀ×": 4116,
  "ä¸įæħİ": 114745,
  "Ã¢te": 54544,
  "ĠTRMM": 48182,
  "æĹħæ¸¸": 7668,
  "lex": 2287,
  "ĠMemorandum": 100014,
  "ĠBacterial": 92909,
  "Ø±ÙĬÙĥ": 34171,
  "Ġcontend": 60967,
  "ĠAlic": 80591,
  "Annual": 65930,
  "te": 592,
  "esk": 24561,
  "ä¿¡åı·çļĦ": 69816,
  "owing": 14753,
  "æķĳçģ¾": 64154,
  "è¾¹æ¡Ĩ": 85592,
  "çłĤå²©": 118076,
  "naud": 118976,
  "variable": 61311,
  "esz": 38537,
  "yczÄħ": 102850,
  "ĠPrevious": 34158,
  "ìµľ": 103397,
  "ä¸»åĬĽ": 37295,
  "ully": 96025,
  "ç»ĳå®ļ": 68037,
  "çµĲåĲĪ": 61974,
  "éĮ¯äºĨ": 110967,
  "809": 29105,
  "ĠÐºÐ¾Ð¼Ð¿": 21790,
  "ĠKeeping": 55874,
  "grams": 37441,
  "é¾ľ": 110462,
  "ittee": 7309,
  "æĪĳçľŁ": 65228,
  "cartes": 79431,
  "arying": 82179,
  "SUB": 70913,
  "åĽŀæĥ³": 61818,
  "ĠBrem": 88945,
  "ä¸Ģåľº": 20968,
  "ĠMillimeters": 83857,
  "ØªÙĬ": 23863,
  "osci": 57675,
  "onday": 8349,
  "è½¯çļĦ": 98783,
  "ĠTats": 123997,
  "ĠDuff": 122047,
  "Ġà°¨": 49071,
  "pra": 61241,
  "lÃ©": 20656,
  "Ġplaus": 42255,
  "æĹ§": 6479,
  ",K": 58607,
  "ging": 5426,
  "Î±Î»Î»": 114002,
  "_CELL": 114911,
  "çŀ³åŃĶ": 63398,
  "eous": 26011,
  "ViewModel": 42765,
  ".generate": 119629,
  "ÑģÐºÑĥ": 58276,
  "ĠPolk": 120748,
  "estim": 76149,
  "ĠAllocation": 97953,
  "Ġespiritual": 125170,
  "_case": 78392,
  "py": 12403,
  "æĸĩåı²": 84048,
  "Ġlocalization": 43346,
  "è°·çī©": 100692,
  "Ð¾ÑĤÑı": 52565,
  "ç§¯": 2736,
  "eV": 122202,
  "å±Ĭä¸īä¸Ńåħ¨ä¼ļ": 105268,
  "_date": 22993,
  "build": 29295,
  "ĠMÃ¼ller": 75065,
  "æīĢä»¥": 2636,
  "isease": 77324,
  "æİ©é¥°": 63159,
  "Ġscur": 122593,
  "Ġprayer": 18176,
  "Ġtorsion": 108273,
  "Ġselves": 83047,
  "ĠØªÙĤ": 18216,
  "åĿ¡": 11725,
  "å£®": 11728,
  "Downloads": 73256,
  "<｜place▁holder▁no▁465｜>": 128465,
  "Ġbombers": 118434,
  "æĸ°åªĴä½ĵ": 63786,
  "è¿·": 7802,
  "à¨¤": 61440,
  "ICK": 33523,
  "aller": 54017,
  "è¡¨æĥħ": 15253,
  "åĳĲåĸĬ": 90342,
  "Ġimpatient": 71424,
  ".assign": 118889,
  "åıĪæ²¡æľī": 99159,
  "Ġdva": 103033,
  "Ġinterc": 107918,
  "æº«åº¦": 84138,
  "ining": 2367,
  "Ġvyd": 104648,
  ",.ĊĊ": 123776,
  "Ġoutcomes": 9935,
  "éŁĭ": 121589,
  "ç¨ĢéĩĬ": 52868,
  "Pron": 56258,
  "continue": 45911,
  "ĠRuiz": 83386,
  "éļıçĿĢæĹ¶éĹ´çļĦæİ¨ç§»": 112774,
  "èĳ£äºĭéķ¿": 30765,
  "-expl": 120427,
  "Ġroster": 50929,
  "å¼ĢæĿ¥": 44433,
  ")),Ċ": 43075,
  "-liquid": 125204,
  "Ġthinker": 101950,
  "åĸ§åļ£": 101132,
  "Ġverd": 18453,
  "æĴĳ": 12116,
  "Japanese": 48684,
  "rules": 81443,
  "Ġjudgment": 13632,
  "ĠCiv": 44005,
  "igo": 15612,
  ".where": 123242,
  "å®¶çĶµ": 64406,
  "ä¸Ńå°ıåŃ¦": 44283,
  "ãĤĮãģ¦": 60663,
  "ä¸İä¼ļ": 51170,
  "è®¨è®º": 10051,
  "æĿŃå·ŀå¸Ĥ": 85048,
  "áĥĿáĥĽ": 97539,
  "Ġtemples": 49184,
  "çĿ¡è¦º": 116115,
  "æĭ§": 47401,
  "ĠÐ¾Ð±ÑĬÐµÐºÑĤÐ¾Ð²": 115571,
  "manifest": 122737,
  "_code": 17636,
  "ä¹Łåıªèĥ½": 51788,
  "ĠCook": 16615,
  "Description": 14340,
  "ĠCow": 31992,
  "-def": 39721,
  "idden": 9239,
  "ĠCorinthians": 56592,
  "CHO": 96382,
  "Ġbones": 21485,
  "ĠChilean": 99398,
  "Ġmacros": 114844,
  "viii": 87053,
  "Rp": 101450,
  "Ġpersisted": 70119,
  "ĠWhere": 11343,
  "Ġgardeners": 89427,
  "ĠÐĵÐ»Ð°Ð²": 104225,
  "Phill": 96040,
  "æĬĸåĬ¨": 109645,
  "çŃīèĳĹ": 93221,
  "hig": 49210,
  "Ġtend": 7184,
  "Ġsebelum": 60499,
  "ç¡ķå£«åŃ¦ä½į": 90674,
  "opies": 111902,
  "Ġwrought": 89278,
  "ĠÙĪÙĤØ¯": 47061,
  "éģĩåĪ°": 10706,
  "äºĮåįģä¸ĥ": 90082,
  "çķ¥æĺ¾": 93450,
  "Ġbenz": 42838,
  "Î¸Î·ÎºÎµ": 30324,
  "Õ¸ÖĤÕ½": 84935,
  "çĶ¨äººåįķä½į": 44031,
  "ĠELSE": 67371,
  "-employed": 106930,
  "Ġpap": 18311,
  "ĠOptical": 54020,
  "Ġentropy": 41396,
  "æ¬ºè¯Ī": 76114,
  "Ġcoales": 89673,
  "èįīåľ°ä¸Ĭ": 123330,
  "å°ıè¯´": 12630,
  "oughton": 72956,
  ".height": 43427,
  "XYZ": 75871,
  "è¿Ļçķª": 79845,
  "åħŃåįĥ": 110315,
  "rels": 45771,
  "ĉĊĉĊ": 64175,
  "Ġtetapi": 51336,
  "abord": 111775,
  "Ġsilicone": 85512,
  "Ġstimulated": 50636,
  "å¤ĦçĲĨåĻ¨": 43423,
  "¿Ĳ": 100818,
  "ä»Ģä¹Īäºĭ": 38680,
  "Typ": 36906,
  "æ¨±æ¡ĥ": 72922,
  "Rd": 109539,
  "ç¼ĸåĪ¶": 20681,
  "XX": 7224,
  "×Ļ×ļ": 34898,
  "Ġtumours": 81573,
  "ãĤ¢": 10194,
  "ĠØ§Ø¨Ø±ÙĬÙĦ": 110034,
  "çĲ¶": 85240,
  "Ġcoverage": 12656,
  "ä¸İä¸ŃåĽ½": 52663,
  "Ġark": 72178,
  "å°±æ²¡æľī": 24287,
  "çĽ¸è²Į": 95318,
  "ĠActive": 23623,
  "è¿ĺè¯´": 73806,
  "backs": 22234,
  "Ġstiffness": 46629,
  "Ġlleva": 110880,
  "ĠWell": 11116,
  "ä¼ģä¸ļç»ıèĲ¥": 83846,
  "ç«ŀäºīä¸Ń": 107969,
  "odus": 46844,
  "ĠShel": 27644,
  "vera": 111398,
  "æĪĳè¯´çļĦ": 121026,
  "Ġox": 5753,
  "çļĦèĥĮå½±": 104542,
  "äºĨä¸Ģä¸Ŀ": 83185,
  "ĠAVA": 104920,
  "ĠWeiss": 58083,
  "ĠPoland": 27048,
  "Ġfins": 46255,
  "Ġbind": 25317,
  "ronomic": 115726,
  "à¥ĭ": 10263,
  "Iran": 90846,
  "Ġdopamine": 56481,
  "à¦Ń": 17688,
  "éħįæľī": 99203,
  "Collections": 112491,
  "çļĦèº«ä»½": 48478,
  "pon": 2829,
  "å£°ä¸Ń": 78921,
  "rants": 16036,
  "ĠBrut": 123590,
  "ä¸¤çĤ¹": 41050,
  "Ġtelah": 34525,
  "çľĭä¹¦": 51971,
  "æ²¡éĤ£ä¹Ī": 83640,
  "ĠVARCHAR": 53780,
  "Biblical": 111240,
  "ĠAng": 4464,
  "Ġsesuai": 68858,
  "ĠczÄĻsto": 81237,
  "ĠAlternate": 100267,
  "ÐµÐ´Ð¸": 33046,
  "Ġidentities": 35372,
  "clin": 114557,
  "ãĢĭãĢĤĊ": 64327,
  "ÑĨÐµÐ½Ð¸": 66476,
  "untary": 49616,
  "ĠHaas": 118534,
  "Ġdehydrated": 124627,
  "oscopic": 38402,
  "ä¸įå°ĳäºº": 65105,
  "Ġignor": 28533,
  "Å¼enia": 116765,
  "å°±æĺ¯ä»ĸ": 87379,
  "ollis": 120667,
  "Ġvariational": 121613,
  "ÑĶ": 40045,
  "ĠAssert": 30028,
  "è·Ŀ": 5741,
  "å¯¹å¤ĸå¼ĢæĶ¾": 69272,
  "×¨×": 5173,
  "answ": 24669,
  "Ð»ÐµÐ½Ð¸ÐµÐ¼": 49003,
  "ĠAm": 3167,
  ".empty": 42842,
  "Ġcommerc": 9136,
  "Ġdrastic": 67325,
  "<｜place▁holder▁no▁493｜>": 128493,
  "äºĨåĢĭ": 107856,
  "Represent": 65632,
  ".%": 84222,
  "æľīæĿ¡ä»¶": 110501,
  "artic": 9349,
  "ä½µ": 72368,
  "Ġskill": 12697,
  "ĠDai": 73679,
  "Ġzeigt": 77463,
  "åħĪç¥ĸ": 117771,
  "éĶ°": 66141,
  "Ġdaylight": 50112,
  "Ġnoventa": 127501,
  "ä¿Ŀç½Ĺ": 62546,
  "ĠØ¢": 5178,
  "èĥ½éĩı": 13333,
  "Ġcommodities": 49320,
  "Ġcampa": 92601,
  "ĠÑįÑĦÑĦÐµÐºÑĤÐ¸Ð²": 45755,
  "Ġcanoe": 83712,
  "å®Łæĸ½": 92084,
  "Okay": 33001,
  "é¢ĳ": 5058,
  "ĠÙĬØŃØª": 89147,
  "à¸Ħà¸ĩ": 82990,
  "teacher": 56414,
  "ĠDodge": 95870,
  "Ġresource": 7823,
  "crit": 26786,
  "è£Ŀç½®": 96011,
  "äº¤æį¢æľº": 93286,
  "ÑĩÐ½ÑĭÑħ": 38675,
  "Ġcategorical": 69481,
  "utorial": 56575,
  "encing": 11973,
  "Ãºs": 29215,
  "Ġgrounds": 20864,
  "araan": 78014,
  "umbar": 58673,
  "ç¬¬åįģäºĶ": 71489,
  "lining": 42976,
  "-seven": 17749,
  "Ġarquitect": 101563,
  "Ġberada": 86302,
  "Ġ*)": 24482,
  "Ġprototypes": 86209,
  "ĠPrevent": 45042,
  "åºĶæĶ¶è´¦æ¬¾": 88632,
  "ä¸ĬåĨĮ": 53671,
  "Ġcampos": 110672,
  "åĶĩ": 15617,
  "Ġkomplex": 110319,
  "ĠÐ¼Ð½": 21161,
  "idual": 56661,
  "Ġnehmen": 96470,
  "Ġlining": 46266,
  "Ð±Ð°ÑĢ": 110545,
  "æ¸ħåģ¿": 74867,
  "å¹¾ä¹İ": 46315,
  "Highly": 126314,
  "à¸Ĺà¹Į": 86582,
  "è¦ģæĿ¥": 119186,
  "ĠSurvival": 61878,
  "Ġmarkings": 73365,
  "Ġmarche": 125827,
  "æī¬å£°": 112277,
  "èįĶ": 56709,
  "å¤§å°ıä¸º": 114710,
  "ĠVie": 66495,
  "åĩĨå¤ĩå¥½çļĦ": 115164,
  "æľ¬æĿ¡": 121940,
  "Ġtopping": 79774,
  "ologique": 53675,
  "Ġcompliment": 45572,
  "çļĦæ³ķå¾ĭ": 36628,
  "ÑĦÐµÑĢ": 32463,
  "Ġà¦Ĩà¦¸": 56908,
  "æŁ³": 10598,
  "acha": 59914,
  "pool": 22989,
  "çģ«çĥŃ": 80582,
  "Ġjeg": 100479,
  "ngo": 127739,
  "ä¼ļéĢłæĪĲ": 64650,
  "cal": 5096,
  "Ġtorna": 113179,
  "ä½łæ²¡": 80065,
  "Ġcurious": 24967,
  "åĸĿçļĦ": 91514,
  "Ġfaible": 106198,
  "ĠVon": 44521,
  "ĠSund": 7999,
  "ãģľ": 61092,
  "=\\{": 120339,
  "ä¸Ńéĵģ": 120743,
  "rente": 33750,
  "Ġnominations": 84510,
  "Ġnitride": 90918,
  "-Ver": 54883,
  "ĠØ±Ø´Ø¯": 82386,
  "Arab": 40899,
  "ĠÐºÐ°ÑĩÐµ": 30134,
  "Û": 154,
  "Ġexpectation": 33063,
  "oth": 1394,
  "Ġstruggle": 14975,
  "ç®Ģç§°": 24279,
  "çĽĬæ°Ķ": 82797,
  "ĠTU": 78374,
  "Ġdefin": 4625,
  "ÑİÑīÐ¸Ð¼": 63537,
  "/+": 80883,
  "Ġdiscoveries": 44994,
  "ĠÎ´Î¹Î±": 52175,
  "è¡·å¿ĥ": 109130,
  "indle": 54226,
  "ĠSV": 39857,
  "ĠLebens": 39898,
  "æĢ»éĥ¨": 38394,
  "Ð²ÐµÑģÑĤÐ¸": 36241,
  "æĹ¢ä¸į": 92799,
  "Ġsna": 117329,
  "SELECT": 21039,
  "ÙĥØ§Ø±": 73665,
  "izados": 71512,
  "Ġbele": 69357,
  "Ġalunos": 63684,
  "Ġciento": 98693,
  "cole": 33933,
  "Ġstudied": 11442,
  "Äķ": 70763,
  "çł´äºĨ": 54601,
  "å°įæĸ¼": 28083,
  "ORIES": 96487,
  "Ġcouples": 31113,
  "ĠImproved": 46029,
  "ãĤ·ãĥ§ãĥ³": 41879,
  "ìĬµëĭĪëĭ¤": 19418,
  "ĠÎ´Î¹Î¬": 107305,
  "ÙĦÙĬØ©": 71103,
  "Ġdiets": 42403,
  "303": 15458,
  "ilinear": 117463,
  "ĠWhat": 1999,
  "Wood": 50893,
  "ĠÃ©lect": 74293,
  "Ġsai": 86068,
  "äº§åĵģæĪĸ": 110567,
  "ĠPROT": 117276,
  "å®īä¿Ŀ": 71331,
  "à§İ": 35869,
  "å®ŀæµĭ": 91868,
  "Ġimitation": 73286,
  "resh": 6176,
  "/get": 70536,
  "ãģĹãģ¦ãģıãģłãģķãģĦ": 95130,
  "Ġnga": 6503,
  "ë¥¸": 31796,
  "æľĿèĳĹ": 74773,
  "Ġdivor": 25853,
  "Ġhereby": 49275,
  "Ð¹ÑģÐºÐ¾Ð¹": 55420,
  "ä¸¤éĿ¢": 78356,
  "ĠØ¹ÙĦÙĬÙĩ": 28759,
  "ĠmÃ©dico": 79135,
  "emas": 69679,
  "218": 15375,
  "Ð³Ð¾ÑĢ": 47284,
  "confidence": 86914,
  "Ġadequacy": 94815,
  "ĠÐ¸": 1130,
  "Ġblew": 54135,
  "ĠSheridan": 104722,
  "ÃĶ": 99848,
  "æĦļèł¢": 69811,
  "keen": 87380,
  "Ġuncover": 28091,
  "?(": 38182,
  "ĠÐ²ÐµÐº": 43484,
  "(mat": 112043,
  "æĮ¡ä½ıäºĨ": 122699,
  "ĠAccount": 14292,
  "config": 12028,
  "Ġseas": 41366,
  "ĠTGF": 78301,
  "ĠÑģÐ»Ð¾Ð¶": 38940,
  "ĠSanders": 56794,
  "BP": 19156,
  "Cloud": 34316,
  "âĢĺ": 3505,
  "Ġanno": 68741,
  "Ġforgot": 40607,
  "ugnawan": 42593,
  "ĠEmmy": 103440,
  "×Ļ×ľ×Ķ": 45991,
  "ORK": 30094,
  "Tail": 92197,
  "çļĦç©º": 67565,
  "Ġconviction": 29968,
  "×Ļ×ŀ×Ķ": 82350,
  "è§Ĩè§ī": 23038,
  "åĩºå¸Ń": 24162,
  "ĠRin": 92723,
  "Ġph": 1319,
  "ĠSchiff": 105483,
  "ç§¦": 6375,
  "ĠEggs": 90257,
  "Ġíĸ": 31950,
  "Ġà¸Ħà¸¸à¸ĵ": 98706,
  "æľŁä¸Ń": 65399,
  "Ġti": 20608,
  "ĠTruth": 34503,
  "kh": 24767,
  "Ġsoil": 7842,
  "uat": 30447,
  "eyer": 27038,
  "Ġcommencing": 115783,
  "è§ģäºİ": 48874,
  "Ġà¤ķà¥ĭ": 59687,
  "çĢ": 19126,
  "ĠkÃ¶zÃ¶tt": 92976,
  "Ġinfect": 24469,
  "åŃ¦ä¹łåĴĮ": 41491,
  "Ġdisputes": 38257,
  "inkle": 36245,
  "Ã¨ve": 56879,
  "çļĦåı¯èĥ½æĢ§": 41644,
  "Ġinterviewing": 77422,
  "onnen": 94387,
  "Ġglory": 25489,
  "Ð¾Ð»Ð¾Ð³Ð¸ÑĩÐµÑģÐºÐ¾Ð¹": 121414,
  "åĲįæĢĿ": 111186,
  "ĉdelete": 119796,
  "impl": 31281,
  "acar": 118190,
  "allen": 42010,
  "ÙĬÙĨØ§Øª": 122184,
  "Ġbent": 22425,
  "adora": 40552,
  "ĠAgri": 110360,
  "è¿İåĲĪ": 94250,
  "Ġhello": 44388,
  "ĠUC": 41445,
  "(password": 108351,
  "è¾ĥå°ĳ": 40728,
  "çºµæ¨ª": 57272,
  "æĸ°å¹´": 41909,
  "è¿ĺåŃĺåľ¨": 83263,
  "ĠPot": 12393,
  "ĠPotential": 32071,
  "ĠBoulder": 81064,
  "àº": 18965,
  "Ġreply": 20430,
  "Ġpe": 1098,
  "ç°¡åĸ®": 39416,
  "Ġpest": 35724,
  ".el": 110341,
  "Ġ':": 122958,
  "Ġsinister": 95854,
  "Ġprocedures": 10918,
  "/page": 112685,
  "-am": 42202,
  "Ø§Ø¬Ø§Øª": 109323,
  "mist": 67712,
  "ĠÑĥÑĢÐ¾ÐºÐ°": 113101,
  "à¹Ģà¸¨à¸£à¸©à¸Ĳà¸ģà¸´à¸Ī": 115275,
  "Console": 37107,
  "_csv": 58128,
  "è´§è¿Ĳ": 61396,
  "çŃīä¸Ģç³»åĪĹ": 65563,
  "Ġê²ĥìĿ´": 47893,
  "Ãµ": 7841,
  "ê¯": 94569,
  "rets": 50877,
  "Jard": 119234,
  "Ġreproducible": 104914,
  "Ġmoves": 14712,
  "ä¸įè§ģ": 17398,
  "ĠVand": 90289,
  "åħ³éĶ®åľ¨äºİ": 99831,
  "ĠÕ¸ÖĤ": 65616,
  "ìĦ": 4199,
  "Ġattractive": 21063,
  "çľĭå¥½": 48830,
  "ĠHighlands": 94696,
  "ãģĮãģĤ": 105143,
  "unal": 27955,
  "ĠØŁ": 78844,
  "ĠMinimal": 95981,
  "Ġappropriated": 110875,
  "Ġwinding": 41883,
  "çĽĳåĲ¬": 99317,
  "åıĺå°ı": 86808,
  "umont": 83739,
  "dain": 86671,
  "ÑĤÐ¾Ð²": 13261,
  "uv": 8729,
  "ÑĤÐ¾ÑĢÐ°Ð¼Ð¸": 127789,
  "cium": 16120,
  "Ġnovember": 44637,
  "vic": 31767,
  "ä½łåħĪ": 55444,
  "ĠØªÙĪØ¬Ùĩ": 52752,
  "ĠIPO": 90511,
  ".âĢĶ": 34871,
  "ĠSlav": 60833,
  "Ġdarkest": 88961,
  "Ġflourishing": 92236,
  "ĠReproduction": 97417,
  "æĢ§éĹ®é¢ĺ": 69746,
  "Ġsanctioned": 98854,
  "(vector": 48619,
  "è´·": 7779,
  "ëį°": 28991,
  "ledged": 98668,
  "Ġtimely": 26659,
  "è¡¡": 7123,
  "ĠOakland": 61896,
  "ä½łéĢĻ": 104677,
  "åį´èĥ½": 109376,
  "èº«ä¸Ĭä¸ĭ": 112650,
  "Ġcompounding": 96412,
  "ĠÐºÐ¾Ð³Ð´Ð°": 27075,
  "text": 2067,
  "Ã¦r": 43462,
  "åĽłæĸ¯åĿ¦": 94493,
  "à¦Ĩ": 39929,
  "ĠPlaintiff": 31680,
  "Finn": 118266,
  "Cole": 74890,
  ".nih": 79284,
  "ĠcondiciÃ³n": 126088,
  "é¦ħ": 50054,
  "inee": 46927,
  "ãģ«ãģĤ": 127309,
  "Ġimbalance": 56012,
  "à®µ": 21399,
  "fu": 31234,
  "anten": 53616,
  "Ġunstable": 39376,
  "-counter": 87672,
  "Ġunderneath": 40109,
  "ĠNaz": 20185,
  "[edit": 32963,
  "Ġcontractors": 43836,
  "à¤¤à¥įà¤¤à¤°": 112575,
  "ĠPodcast": 60463,
  "æ±Łæ·®": 127670,
  "Ġcalibration": 37199,
  "Ġgrievance": 116247,
  "åħĭéĩĮæĸ¯": 81493,
  "Ġtransit": 34975,
  "lasting": 72594,
  "porate": 73926,
  "Ġtad": 82229,
  "æŀľæĸŃ": 54311,
  "Ġangels": 44816,
  "èŀįæ´½": 86810,
  "Penn": 94372,
  "ĠCNS": 58380,
  "èĩ³å°ĳè¦ģ": 110191,
  "à±įà°ķ": 115237,
  "àµ½": 78264,
  "íħ": 36966,
  "Ġá½ģ": 88681,
  "æ²¡è§ģè¿ĩ": 81581,
  "Ġavec": 11240,
  "åĴĮæĶ¯æĮģ": 55040,
  "Pel": 101055,
  "ouring": 57571,
  "ÛĮØ§": 39309,
  "Ġstriker": 81341,
  "åľ°ä¸ĭæ°´": 79561,
  "ĠSalary": 35885,
  "éĺ³åħī": 15913,
  "Ġembryonic": 60389,
  "ç»Ĵ": 34861,
  "-pro": 7799,
  "post": 10020,
  "éĿĴèī²": 94280,
  "ibernate": 62208,
  "ĠGrill": 102779,
  "ump": 3798,
  "ĠÃ¼bers": 110030,
  "ä¸įè¯´è¯Ŀ": 109652,
  "ĠEmployers": 95894,
  "ĠLaurent": 71201,
  "Ġdepleted": 77321,
  "å°±åľ¨äºİ": 63176,
  "ĠÃ©conomique": 86398,
  "aston": 86908,
  "à¹Ħà¸§": 46055,
  "ĠMerrill": 103742,
  "Creation": 92448,
  "Ġdischarge": 20596,
  "ìĸ": 7565,
  "Ġbanking": 24506,
  "åľ¨åħ¨çĲĥ": 63302,
  "Ġpathology": 44510,
  "Ġcolloqu": 90654,
  "Paint": 101885,
  "Ã©dia": 45541,
  "Ġinstitu": 62376,
  "ĠSight": 72735,
  "ĠStrom": 64687,
  "éĤ£ä¸¤ä¸ª": 99067,
  "<｜place▁holder▁no▁553｜>": 128553,
  "Ġsubmissions": 49523,
  "iterator": 43131,
  "ï¼īãĢĭ": 69472,
  "Ġwhales": 60336,
  "æıĲåĪ°äºĨ": 84325,
  "ĺ×Ĺ": 89463,
  "×ł": 33899,
  "ĠRies": 123527,
  "æĿĥåĬĽ": 19153,
  "iceps": 82998,
  "Ã©rieur": 49604,
  "ä¹Łå¥½": 30639,
  "Ġà¦ķà§Ģ": 110903,
  "Ġprojet": 31636,
  "è¦ģç´ł": 17365,
  "Ġintending": 102009,
  "Ġdeclar": 32535,
  "Õ¸Õ¬": 101509,
  "Ġpalsy": 97663,
  "Ġwicked": 44219,
  "Ġhesitant": 84534,
  "åĽĽåįģ": 32940,
  "Ġboosts": 90843,
  "Ð¸Ð¼Ð¸": 37307,
  "Ġmateria": 57397,
  "ĠÐ¾Ð±ÑĢÐ°Ð·Ð¾Ð²Ð°": 23141,
  "Ã¶d": 54879,
  "ĠNoel": 92882,
  "è¦ĨçĽĸ": 15994,
  "ĠÐ´Ð¾Ð²": 47823,
  "Ġmotivational": 78662,
  "Ø·Ø¨": 69998,
  "ç¨į": 11131,
  "èĩªå·±çļĦèº«ä½ĵ": 99204,
  "çĲĨæīĢ": 66372,
  "åĨ°æ·ĩæ·ĭ": 92747,
  "é¸ŃåŃĲ": 99026,
  "çļĦä¸Ģåı¥è¯Ŀ": 78212,
  "Ġsw": 3177,
  "æľīèĩªå·±çļĦ": 64803,
  "adura": 82607,
  "éĵ²": 47446,
  "Ð¿": 1230,
  "ĠSou": 43760,
  "åľ¨ç½ĳç»ľ": 112059,
  "æ¦¨": 55303,
  "å¿ĥçģµçļĦ": 84902,
  "éĢļä¿¡": 16303,
  "cretion": 23096,
  "|---|---": 12588,
  "tev": 102998,
  "boxes": 67849,
  "ĠSuccess": 21681,
  "Ð¾ÑĢÐ¾": 15094,
  "rocytes": 61240,
  "tage": 34462,
  "ãĤ·ãĤ¹ãĥĨ": 88770,
  "à§ĩà¦²à¦¾": 102950,
  "ĠHammond": 93322,
  "Process": 22424,
  "Ġsecurity": 5597,
  "áº«n": 121059,
  "ĠTherm": 69197,
  "Ab": 6754,
  "Ġmonetary": 28019,
  "ä¸Ģä½ĵ": 19387,
  "ĠClin": 15727,
  "ILE": 21933,
  "Ð¾ÑĢÑĥÐ¶": 81731,
  "Ġresize": 97078,
  "=Ċ": 24925,
  "Ġlocals": 41839,
  "Ġko": 17465,
  "è¢ģä¸ĸ": 88617,
  "Ġcaracter": 33226,
  "åı¯è¡ĮçļĦ": 70851,
  "æĪ°é¬¥": 70281,
  "æĦŁæĤŁ": 37263,
  "ĠAS": 8267,
  "Å¼e": 10406,
  "è§£åīĸ": 57324,
  "reshold": 13021,
  "Ġframed": 53954,
  "ĠJeÅĽli": 103252,
  "Convers": 73613,
  "liquer": 72051,
  "äº²èĩª": 22182,
  "Ġcinema": 37471,
  "Ġrailways": 98241,
  "Ġ(>": 67002,
  "Ġannouncing": 65551,
  "Ġconsider": 2255,
  "å¤ļå¤ļ": 41244,
  "occup": 32694,
  "ĠÏīÏĤ": 76186,
  "é¡¯å¾Ĺ": 94754,
  "Direct": 19943,
  "ĠØ³ÙĬØ§Ø³": 88763,
  "induced": 17367,
  "çĭ©çĮİ": 91743,
  "ä¸įçķı": 88047,
  "ç»ĻäºĨæĪĳ": 76198,
  "Ġnesta": 120084,
  "å¸¶ä¾Ĩ": 78566,
  "Ġvocational": 57426,
  "ĠByron": 75004,
  "ä¸ĭä¾Ĩ": 27125,
  "å¤ļè°¢": 70587,
  "}}Ċ": 30316,
  "ç¾İåĽ½çļĦ": 36074,
  "çĪ±æĪĳ": 91357,
  "à¦¿à¦¯à¦¼": 18403,
  "æĹ¥æ¸Ĳ": 78706,
  "Ġimpersonal": 125180,
  "Ġï": 88089,
  "ç«ĸ": 23472,
  "Ġnenh": 111481,
  "Ġcoalition": 39080,
  "Ġhalo": 77095,
  "åģļçĿĢ": 96740,
  "<｜place▁holder▁no▁538｜>": 128538,
  "Ġdivisions": 32522,
  "veel": 89074,
  "Ġplaceholder": 34089,
  "åıĳå±ķä¸Ń": 84952,
  "éĥ¡": 20623,
  "å¿ĥçĲĨåĴ¨è¯¢": 76819,
  "Ġindicators": 22796,
  "ĠÐ¢": 7654,
  "Ġlaid": 17246,
  "ĠFather": 15807,
  "ĠDas": 18034,
  "å¸ĮæľĽçļĦ": 92121,
  "à¸ģà¸£à¸°à¸Ĺ": 113579,
  "ĠLanding": 89312,
  "Ġemployer": 20899,
  "Ġdob": 43899,
  "opers": 110274,
  "éªĳåħµ": 57871,
  "å¯Ĳ": 80784,
  "é¡»": 3698,
  "/work": 124907,
  "Ġaesthetically": 119212,
  "Instead": 41914,
  "Ð¾Ð»Ñı": 24794,
  "ucent": 81793,
  "åŃ£èĬĤ": 24229,
  "oraly": 83253,
  "ĠindÃ©pend": 119836,
  "âģ¿": 102359,
  "Ġvolunt": 22345,
  "Ġrespectful": 55088,
  "ĠHann": 52062,
  "æĪĲç»©": 10002,
  "Ġconfessed": 83135,
  "umbs": 51670,
  "Ġshapes": 15919,
  "Ġpres": 1430,
  "ĠcafÃ©": 57664,
  "ĠÃ¡mbito": 126826,
  ".âĢľ": 25833,
  "èļĢ": 21395,
  ".nd": 125847,
  "çĸĳéļ¾": 84040,
  "ªà¯įà®ª": 58542,
  "Ġundo": 86112,
  "-surface": 97457,
  "ä¸Ģè¾ĪåŃĲ": 46274,
  "Ġrech": 118909,
  "Ve": 33455,
  "à´¨": 70707,
  "Ġdefending": 43473,
  "åį¡": 4289,
  "'hui": 93805,
  "Ġsymptomatic": 64187,
  "ija": 19281,
  "Ġforearm": 91857,
  "à¹Ģà¸£à¸µà¸¢à¸ģ": 124777,
  "å¤ļå¹´": 15806,
  "iang": 20356,
  "ĠStress": 32242,
  "ĠAssessments": 95107,
  "çĥ¦èºģ": 63947,
  "Ġaltar": 52162,
  "ĠbesÃ¸kt": 101310,
  "Ġconquest": 54129,
  "ĠAlcohol": 43214,
  "ĠThore": 120744,
  "ĠAsi": 108012,
  "ĠBiological": 35621,
  "rones": 38524,
  "ç¬ĳèĳĹ": 67141,
  "Ġexperiences": 8179,
  "ĠSubt": 32300,
  "Ġparticipant": 28711,
  "Ġreinforcement": 38824,
  "ç¡Ŀ": 29263,
  "-hop": 77171,
  "å°ıä¼Ĺ": 127559,
  "é¢ĺåŀĭ": 54631,
  "international": 92777,
  "ĠChanging": 49403,
  "Ġfrat": 126281,
  "ç½ĳæĺĵ": 88076,
  "åĴĮæĶ¿åºľ": 118067,
  "ĠNum": 41421,
  "ĠNueva": 98465,
  "Ġcalculators": 99703,
  "å¥¹ä»İ": 108786,
  "ç»Łå¸ħ": 115079,
  "urk": 34239,
  "Ã¡ndose": 98690,
  "Ġenterprise": 21541,
  "Ġempat": 75340,
  "ullende": 112133,
  "ëĵľ": 17939,
  "æľįåĬ¡": 2833,
  "Ġconfine": 114285,
  "Ġpending": 36875,
  "ç¼©åĨĻ": 85962,
  "åħ¬é¡·": 55268,
  "Ġapartheid": 105568,
  "Ġlead": 2070,
  "Ø§ÙĨÙĩ": 23935,
  "ç§»åĪ°": 72683,
  "ä¼¤å¯Ĵ": 74358,
  "Ġstrugg": 8248,
  "grant": 106590,
  "å¤´çĸ¼": 64822,
  "Pro": 2497,
  "Ġovercame": 120065,
  "æ°´æµģ": 55472,
  "çħ©": 43125,
  "Ġwanna": 73070,
  "æĭĵå®½": 53782,
  "(<": 78223,
  "çĽ¸ä¼¼": 17837,
  "Ġceramic": 46897,
  "ä¸Ĭå®ĺ": 47449,
  "çļĦçĪ±": 42480,
  "ĠHayden": 105357,
  "è´¹çŃī": 115893,
  "éĻķ": 19803,
  "åºĶå½ĵæĮīçħ§": 84959,
  "...[": 102317,
  "æľīæķĪæĢ§": 72820,
  "à²¿à²¸": 67440,
  "Ġconsommation": 103459,
  "Ġtat": 94144,
  "ÛĢ": 93108,
  "Ġprofesionales": 112536,
  "}/${": 117544,
  "ä¸°æ»¡": 93405,
  "compared": 109748,
  "Agric": 70314,
  "æĬĹè¡¡": 98864,
  "Ð¾ÐºÑĢÐ°": 47500,
  "Ġagrees": 38345,
  "<｜place▁holder▁no▁421｜>": 128421,
  "tagHelper": 98059,
  "ĠÐŀÑģÐ½Ð¾Ð²": 74059,
  "ĠConfidence": 77464,
  "Ġunflagged": 87331,
  "opaedic": 115212,
  "strÃ¶m": 68967,
  "extrem": 121566,
  "Ġasparagus": 102978,
  "åħ³èģĶ": 25962,
  "ä¹ĭçİĭ": 75441,
  "åı¹æ°Ķ": 100374,
  "ç¾¤ä¼ĹåĬŀå®ŀäºĭ": 126675,
  "-pandemic": 121725,
  "amentos": 42693,
  "çļĦå¹´": 71309,
  "ĠBeginners": 87252,
  "åįģä¸Ģç«ł": 77857,
  "ĠÐ½Ð°ÑĩÐ¸Ð½Ð°": 47830,
  "abei": 38384,
  "ĠWEST": 117501,
  "æ¸ħæĸ°çļĦ": 121172,
  "ĠEid": 124822,
  "å¤ļ": 799,
  "æ³Ħæ¼ı": 65107,
  "æĶ¹åĸĦäºĨ": 115859,
  "ĠGross": 32995,
  "åĲįç§°": 13535,
  "Ġaire": 76608,
  "ĠÐ·Ð°ÐºÐ¾Ð½": 37476,
  "Ġlago": 116338,
  "æĤłæĤł": 46925,
  "rands": 97989,
  "ĠThinking": 37605,
  "Av": 19072,
  "rightarrow": 20937,
  "è¨±å¤ļ": 37283,
  "ĠÐ²ÑĭÐ¿Ð¾Ð»Ð½": 104528,
  "å°±å¥½äºĨ": 41579,
  "åĪĨç±³": 95528,
  "çļĦå¤§éĥ¨åĪĨ": 82017,
  "Ġscrit": 100464,
  ".setOn": 118245,
  "æıĲåįķ": 107095,
  "Ġregain": 57686,
  "Sex": 57622,
  "æİ¥ç®¡": 85982,
  "Ġlesqu": 102177,
  "upart": 89596,
  "uso": 38146,
  "Ð»Ð¾ÑĤ": 33005,
  "Ã«l": 62316,
  "Authors": 34498,
  "å¨ģèĥģ": 20972,
  "ĠÑĢÐ°Ð¹Ð¾Ð½Ð°": 91835,
  "Ġcuriously": 108771,
  "Parallel": 96542,
  "Ġintervalo": 121948,
  "ç¨³åģ¥": 67688,
  "Ø¢": 15926,
  "é¡¿äºĨé¡¿": 105133,
  "å£°æĺİ": 24320,
  "æ¹¿çĸ¹": 104347,
  "Ġhelpen": 110649,
  "ĠÐºÑĢÑĥÐ¿": 58571,
  "Ġnostri": 102610,
  "ä»ĸèĩªå·±": 38633,
  "mathsf": 41951,
  "ĠAssociations": 86276,
  "å¨ľ": 14228,
  "\\sqrt": 52765,
  "åĸĶ": 41315,
  "}ĊĊ": 2365,
  "ĠØ§ÙĦØµØŃÙĬØ©": 127723,
  "Ġfootage": 46043,
  "ifiques": 78504,
  "æŁłæª¬": 55691,
  "idable": 47335,
  "ĠRec": 7662,
  "ĠSpecialist": 42669,
  "iani": 32595,
  "åľ£äºº": 61282,
  "ĠStock": 15496,
  "Ġvenues": 54484,
  "<｜place▁holder▁no▁243｜>": 128243,
  "¢ħ": 27491,
  "Î¼Î±Î½": 82041,
  "æĶ¾å°ĦæĢ§": 63425,
  "Ġbroad": 7739,
  "696": 27389,
  "Ġbenefiting": 94628,
  "åĩĨèĢĥè¯ģ": 117119,
  "Queen": 67181,
  "æħĺ": 64719,
  "Ġnationalism": 56108,
  "à¤ķà¥ĭ": 74055,
  "Õ¡Õ¾Õ¸ÖĢ": 120102,
  "Ð»ÑıÑĢ": 37587,
  "ÑĨÐ¸Ñİ": 22909,
  "ĠRebe": 47875,
  "Dave": 89814,
  "Ġstatistical": 16724,
  "Ã³x": 123280,
  "Ð½Ð°Ð¿ÑĢÐ¸Ð¼ÐµÑĢ": 117313,
  "éĢļè¯Ŀ": 79548,
  "èĶ¡": 19359,
  "æľºä½ĵ": 48515,
  "à¸±à¸ķ": 91501,
  "Ġeyeb": 37946,
  "Ġapplications": 6532,
  "ÅĽciej": 100175,
  "Klase": 94853,
  "æ¬£åĸľ": 58773,
  "æ¸Ĭ": 20259,
  "ĠWeight": 29099,
  "feedback": 90054,
  "ĠStatus": 20673,
  "Gh": 92544,
  "ĠÐ¼Ð°Ð»ÐµÐ½ÑĮ": 85750,
  "ĠAvatar": 114697,
  "Ġvign": 103560,
  "ĠBriefly": 98138,
  "een": 15671,
  "Ġcurved": 39386,
  "lakang": 75364,
  "ĠNN": 61318,
  "ĠAver": 123246,
  "[âĢ¦": 94971,
  "ĠYao": 82173,
  "æĹłä¸º": 87948,
  "schild": 94890,
  "æľµæľµ": 112368,
  "elos": 108492,
  "à¹ģà¸Ĥà¹Īà¸ĩ": 101943,
  "çļĦæķ°æį®": 19661,
  "ĠÐ¶": 5691,
  "æĳĩæĻĥ": 71323,
  "Ġbounced": 93358,
  "immung": 102224,
  "smith": 52069,
  "äººä¼ļ": 105506,
  "ĠSimulations": 123427,
  "ê°": 4598,
  "Ġnaam": 76736,
  "Ġtalent": 13664,
  "ĠTow": 32046,
  "IOD": 115844,
  "Ġprevious": 4412,
  "éĻįä½İæĪĲæľ¬": 105498,
  "Ġcomprised": 34979,
  "èĦ±åı£": 96829,
  "å¤§è¿ŀ": 44345,
  "Ġtrade": 7629,
  "ĠíĮĮ": 39335,
  "ZH": 80436,
  "æľ¬å±Ĭ": 71192,
  "_not": 57036,
  "Ġfootball": 13831,
  "å±±å¤´": 119532,
  "æĥ¨": 18329,
  "Ġore": 30211,
  "çľ¯": 28689,
  "atek": 104728,
  "Î±": 1753,
  "ALTER": 72545,
  "ETA": 38874,
  ".model": 25824,
  "æµ·æµª": 121830,
  "Ġexpres": 46680,
  "èİ«åĲį": 40335,
  "Ġness": 97271,
  "åĴ¬": 14427,
  "ika": 6183,
  "Ġledger": 86508,
  "ĠÎ¤Î¿": 75119,
  "å¦¾": 42473,
  "Ġcommunist": 61498,
  "åģĩ": 4594,
  "Î¹Î½": 31790,
  "ĠStanton": 102010,
  "ĠTul": 57856,
  "å½¬": 36150,
  "FK": 63357,
  "éłĲè¨Ī": 118744,
  "ä»Ļ": 7440,
  "ĠÙĦØ¬": 52895,
  "ç´§ç¼©": 105012,
  "ĠÐ¼Ð¾Ð´Ñĥ": 96964,
  "(child": 100016,
  "Ġdisso": 77055,
  "ĠFGC": 62347,
  "à¥ĭà¤½": 105770,
  "å¥½ä¸įå®¹æĺĵ": 51221,
  "ficiency": 50190,
  "éĢĻæīį": 75254,
  "æĿ¡çļĦ": 103543,
  "ague": 6794,
  "ĠĠĠĊ": 14320,
  "Rectangle": 93225,
  "ĠRwanda": 72353,
  "Ġzach": 44868,
  "(`${": 89779,
  "aglia": 88159,
  "çıį": 10189,
  "ĠSurveillance": 86721,
  "ĠBelarus": 63278,
  "äº²çĶŁ": 103892,
  "ectic": 121788,
  "æĺ¯æŃ£ç¡®çļĦ": 80605,
  "Ġsatire": 96369,
  "Ġparsec": 115626,
  "nÃŃ": 4814,
  "Ġbananas": 68795,
  "è§ģæŃ¤": 105352,
  "çļĦåĬĽéĩı": 21875,
  "ĠSDS": 82079,
  "Ġstretched": 38189,
  "ì¶Ķ": 73785,
  "æĵģ": 38967,
  "Ġottobre": 117425,
  "å°Ĩè¢«": 56738,
  "Ġanomalous": 90719,
  "íİ¸": 59265,
  "ĠGradient": 98952,
  "Ġì¶ľëł¥": 82553,
  "æķ¦çħĮ": 65785,
  "Ġmisunderstand": 78740,
  "ĠØªØ§Ø«ÛĮØ±": 101567,
  "çĽĬçĶŁ": 118644,
  "Ġhypothalam": 73219,
  "Pane": 93947,
  "Ð±Ð¾Ð»": 126745,
  "dynamics": 115461,
  "ĠHarbour": 88322,
  "å¥ĭåĬĽ": 59542,
  "(#": 98822,
  "èŀºçº¹": 56025,
  "Ġwhen": 1082,
  "Ġpatterned": 92031,
  "Ġcrews": 68116,
  "ĠÐ½Ð°Ð¿": 14618,
  "apital": 114595,
  "Ġesper": 34612,
  "ĠCarlson": 97972,
  "ĠØºØ°Ø§": 109862,
  "Ġimportance": 7176,
  "Ġvary": 9757,
  "Ġfiguring": 66961,
  "ĠlÃ©": 32633,
  "ĠTort": 64649,
  "é»ŀäºĨ": 65822,
  "éĤĦæĺ¯": 15596,
  "Ġstal": 49545,
  "ĠØ£ÙĦÙģØ§Ùĭ": 109326,
  "èİĺ": 98686,
  "},Ċ": 10656,
  "erma": 77956,
  "Ġà¦¬à¦Ľ": 69629,
  "ç¨İåĬ¡å±Ģ": 88562,
  "ĠIA": 47946,
  "ĠÐ²ÑĸÐ´": 84133,
  "Ġbearers": 121190,
  "åı¯æł¹æį®": 56446,
  "æĵł": 92664,
  "ĠOxford": 13955,
  "ĠâĨĲ": 63094,
  "åľ¨åĮ»éĻ¢": 100772,
  "Ġunfortunately": 38029,
  "Ġhers": 44349,
  "ä¸įä½ı": 10374,
  "åį±æ©Ł": 93639,
  "ify": 2196,
  "<｜place▁holder▁no▁433｜>": 128433,
  "Ġthumbs": 93813,
  "ĠrÃ¨g": 80210,
  "çģ¯åħ·": 98818,
  "Ġlandl": 37788,
  "pei": 67312,
  "Ġpains": 57496,
  "è´¨éĩıéĹ®é¢ĺ": 118920,
  "Ġactivated": 26150,
  "ertation": 37804,
  "ĠìĿ´ë¦Ħ": 78836,
  "ĠStability": 63441,
  "ä¸Ģå®ļæĺ¯": 31731,
  "azione": 8910,
  "Ġpreclinical": 104314,
  "Ġfantas": 67303,
  "Ø²": 2226,
  "æĦŁæŁĵèĢħ": 83158,
  "Books": 41792,
  "æĥ¶æģĲ": 110575,
  "sharp": 78560,
  "ĠSchema": 46573,
  "ç»ĻåŃ¦çĶŁ": 71105,
  "å°½æĹ©": 72745,
  "ĠVT": 63949,
  "Ġcaregivers": 47697,
  "ĠrÃ©p": 83799,
  "ĠÑĢÐ°ÑģÑģÑĩÐ¸ÑĤÑĭ": 99890,
  "æįŁå®³": 19537,
  "ham": 5440,
  "POL": 87127,
  "å¥¹è¢«": 111970,
  "ĠAh": 20489,
  "Ġfleeing": 83477,
  "Ã§Ã£o": 4097,
  "çļĦè®¡ç®Ĺ": 45032,
  "owali": 107238,
  "è¯ģåĪ¸": 14536,
  "Ġdiarrhea": 47826,
  "Ġpharmacies": 85029,
  "rest": 6333,
  "aring": 3572,
  "¨àµįà´¨": 56531,
  "ĠTakah": 101880,
  "GO": 17992,
  "ĠArrest": 116860,
  "Ġchromosome": 36335,
  "×Ļ×©×Ķ": 67282,
  "Ġ×ĳ×Ļ×Ł": 46390,
  "å¸ĮæľĽå¯¹": 83354,
  "å¹¿æ³ĽåºĶçĶ¨äºİ": 107581,
  "Ġà¸Ĺ": 42719,
  "ĠEvol": 67988,
  "ç¯ĩå°ıè¯´": 68866,
  "Ġtelef": 114135,
  "ä¸Ĭ": 572,
  "Ġdunque": 123567,
  "ĠKitchen": 51007,
  "kc": 29183,
  "Õ¡Õ": 3784,
  "ĠÐ¿Ð¾Ð¼Ð¾ÑīÐ¸": 70295,
  "ĠETF": 87280,
  "istic": 3617,
  "compact": 125164,
  "864": 28282,
  "brecht": 96553,
  "ĠNish": 76535,
  "ĠØ§ÙĤØ¯Ø§Ùħ": 127826,
  "åıĥåĬł": 51080,
  "won": 64048,
  "éĿŀè¦ģ": 58173,
  "Ell": 53383,
  "-react": 119889,
  "æīĵç®Ĺ": 16451,
  "essel": 49053,
  "grand": 80864,
  "à¹Ĥà¸£à¸ĩ": 43284,
  "ĠIgA": 121713,
  "à¥įà¤¯à¤¤à¥ĩ": 119342,
  "thello": 119078,
  "à¸²à¸£à¸¢à¹Į": 117675,
  "ĠwspÃ³ÅĤ": 63037,
  "Ġprogrammers": 73053,
  "usic": 73983,
  "Ġ×Ļ×¢": 88938,
  "Ġcoe": 11623,
  "Ġunl": 61207,
  "ĠPicasso": 87781,
  "Ġprinces": 80651,
  "å§Ķ": 2625,
  "Ġmou": 49773,
  "åĭĩäºİ": 46968,
  "ĠCHECK": 70347,
  "Ð²Ð°ÑĢ": 52270,
  "Ġsurged": 100079,
  "_b": 9181,
  "ĠBru": 18794,
  "Healthcare": 127212,
  "è´Ńç½®": 61836,
  "à¸Ļà¸²à¸¢": 122826,
  "ĠPac": 13278,
  "Å¼yw": 62794,
  "è´¤": 16732,
  "ĠØ¯Ø±": 4294,
  "æ©Ł": 7521,
  "grid": 36512,
  "åħ¶æīĢ": 45568,
  "chet": 36878,
  "Ġtorment": 83632,
  "ĠEleanor": 77290,
  "ĠBismarck": 126294,
  "irmingham": 41520,
  "ĠDharma": 121534,
  "ĠCV": 31402,
  "Webster": 95030,
  "åºĹ": 4400,
  "305": 16553,
  "etime": 12669,
  "Ġà¹ĥà¸«à¹ī": 73078,
  "atius": 113666,
  "ĠMys": 72300,
  "<｜place▁holder▁no▁414｜>": 128414,
  "éĢļè½¦": 79934,
  "ĠSay": 27610,
  "ownload": 8969,
  "à¸ŀà¸±à¸Ļà¸ĺà¹Į": 99948,
  "ĠSÃ¼": 90159,
  "<｜place▁holder▁no▁736｜>": 128736,
  "ÙĦÛĮÙĦ": 50795,
  "ç¬¬ä¸īå¤©": 95698,
  "ppt": 94205,
  "è½¯ä»¶çļĦ": 105147,
  "ĠÎļÎ±": 51901,
  "Ġseeding": 116719,
  "ourses": 24248,
  "ibb": 84131,
  "Ġteased": 110913,
  "Õ¡Õ¦Õ´": 119666,
  "ì¸µ": 91642,
  "Jump": 55167,
  "å¯¹åı£": 89916,
  "é¢ĦæľŁ": 20574,
  "åĽŀåĲĪ": 63913,
  "Ġcounter": 8058,
  "%ï¼ī": 98360,
  "è®¤å®ļä¸º": 84955,
  "ĠJess": 30602,
  "olat": 94036,
  "å·®é»ŀ": 100380,
  "ãģªãģĦ": 10187,
  "ĠHare": 105482,
  "ĠEm": 3714,
  "ĠaÃ±os": 23497,
  "Ġdr": 2263,
  "çļĦå¼Ģå§ĭ": 93779,
  "Ġplanets": 35454,
  "288": 17391,
  "essage": 3892,
  ".sql": 60179,
  "ĠÐ¼ÐµÐ½Ðµ": 51609,
  "æķ°é¢Ŀ": 41031,
  "çļĦæľįåĬ¡": 41157,
  "å®ĿèĹı": 79303,
  "æĻ": 930,
  "(right": 80332,
  "Ġlowered": 37954,
  "sorted": 113144,
  "Î½Î±": 11091,
  "Curriculum": 126621,
  "Ġá½": 33108,
  "Ġaucune": 106846,
  "Ġexemplifies": 116495,
  "Ġadmiring": 120407,
  "=_": 111532,
  "ä½łè¿ĺ": 35001,
  "èªªäºĨ": 57976,
  "ĠSaunders": 77414,
  "éĤ£ä¸ªæĹ¶åĢĻ": 54970,
  "ĠÐ·Ð°ÐºÐ»Ñİ": 93637,
  "Ġchallenge": 8851,
  "ç»Īäºİ": 10545,
  "çĭ¼çĭ": 68185,
  "ĠInteg": 14362,
  "åĬ¿å¿ħ": 71353,
  "Ġanticipates": 126884,
  "Ġwaj": 110379,
  "ĠPed": 15432,
  "ition": 810,
  "Ġlesson": 12316,
  "LIM": 118307,
  "Ġcompaction": 117081,
  "xi": 8084,
  "Ġarched": 114688,
  "ĠDesc": 62440,
  "è·ĮåĢĴ": 111328,
  "Ġ×ķ×ĵ": 109158,
  "ĠÙĨÙħØ§ÛĮØ´": 125884,
  "èĢĮæĦŁåĪ°": 109977,
  "engelsk": 127032,
  "Reason": 77666,
  "ĠGaming": 70230,
  "ERO": 53969,
  "éŀį": 53790,
  "ĠØªÙĪØ§ÙĨ": 30576,
  "æĬķä¿Ŀ": 56579,
  ".plot": 53475,
  "Ġ×Ľ×ŀ×ķ": 61480,
  "å·¥åħ·æłı": 64621,
  "çĶŁæ´»åľ¨": 44682,
  "ĠJenn": 29251,
  "æ¡¥": 7774,
  "<｜place▁holder▁no▁504｜>": 128504,
  "Ġvinyl": 59992,
  "Ġeinf": 47695,
  "ä¸ĥå¹´çº§": 90508,
  "assert": 12609,
  "Ġvole": 122731,
  "reset": 64770,
  "Ġrabbits": 55235,
  "Ġonderwijs": 91036,
  "éģ®èĶ½": 127092,
  "ÑĥÐº": 68121,
  "URS": 64025,
  "ĠGue": 126996,
  "<｜place▁holder▁no▁155｜>": 128155,
  "ĠFunction": 14478,
  "oses": 11380,
  "rators": 27288,
  "Ġprogen": 50460,
  "çĽ¸åºĶåľ°": 109820,
  "Ġjihad": 120876,
  "ä½Ĩè¿Ļ": 37658,
  "cker": 21371,
  "Ġà¦®à¦¾à¦§à§įà¦¯à¦®": 93297,
  "çļĦçĶŁæ´»æĸ¹å¼ı": 98552,
  "ĠÐĵÐµÑĢÐ¼Ð°": 107105,
  "ä¸īä¸ªéĺ¶æ®µ": 123066,
  "Ġsehr": 34186,
  "¡×Ĵ": 102743,
  "Ġbalcony": 69936,
  "éķ¿åŁİ": 44140,
  "-pound": 79566,
  "ÑĢÑĥÐº": 22456,
  "ĠÐ²Ð¾Ð·ÑĢÐ°ÑģÑĤÐ°": 66646,
  "å«¡": 71359,
  "æµ·æ´ĭ": 19226,
  "Ð¶Ð½Ð¾ÑģÑĤÐ¸": 74357,
  "Ġbury": 64311,
  "Ġsakit": 84859,
  "çĥŃçº¿": 49447,
  "Ġanticipating": 89516,
  "istency": 51945,
  "çļĦéĺ¿": 116546,
  "Ġknight": 60112,
  "åĵģè³ª": 79681,
  "Ġdawn": 36365,
  "ãĤ¦ãĥł": 101655,
  "ĠEvidence": 26848,
  "çļĦç»ıæµİ": 26237,
  "à¸Ĥà¸¶à¹īà¸Ļ": 24626,
  "ÐºÐ»Ð¸": 92507,
  "Ġsubscribing": 124724,
  "-mod": 34246,
  "ophila": 54497,
  "å¤ªå¹³": 25412,
  "Ġbarking": 113698,
  "ĠÙĪØ§ÙĦØ´": 97244,
  "Ġblockchain": 33500,
  "721": 27836,
  "ĠChildhood": 48805,
  "scribed": 50542,
  "ä½¿çĶ¨æĸ¹æ³ķ": 97405,
  "inees": 50745,
  "ĠSMART": 107277,
  "åľ¨åľº": 54201,
  "Ġdatabases": 25496,
  "Ġshook": 23993,
  "è®Ńç»ĥçļĦ": 127110,
  "ĠÐ²ÐµÑĢ": 20526,
  "æĮĳèµ·": 114817,
  "ä»£è¯į": 103747,
  "iant": 10289,
  "ĠPrix": 62200,
  "ĠWhats": 52017,
  "Ġlikelihood": 23246,
  "Ġmarital": 61647,
  "ç¼ĸè¯ĳ": 38888,
  "acters": 7829,
  ".Check": 106673,
  "Ġstray": 59788,
  "<｜place▁holder▁no▁689｜>": 128689,
  "oking": 13126,
  "à¦¿à¦ı": 103216,
  "lauf": 79404,
  "åĹ¯": 16426,
  "à¦Ĺà§ģà¦²à¦¿": 112480,
  "historic": 61487,
  "iaceae": 94511,
  "opes": 18383,
  "Ġdav": 40327,
  "ĠÐºÐ²Ð°Ð»Ð¸": 119006,
  "ĠÐ¿ÑĢÐ¾ÑĨÐµÑģÑģÐ°": 64804,
  "Ġpelo": 26943,
  "Ġreperc": 78188,
  "<｜place▁holder▁no▁302｜>": 128302,
  "ĠÐ¼ÑĭÑģÐ»Ð¸": 123818,
  "å·´åŁºæĸ¯åĿ¦": 86475,
  "´ĳ": 50990,
  "åĩĨç¡®": 12963,
  "ĠAnonymous": 61611,
  "Ġneurotransmitters": 118652,
  "Ġhint": 30104,
  "-profit": 37616,
  "ĠSec": 8330,
  "ÏĥÎº": 96678,
  "ÑĢÐ¸Ñı": 23310,
  "æ·©": 78194,
  "ĠÙĨØ¬": 112631,
  "Ġcake": 22461,
  "æ²¡éĴ±": 85031,
  "åĴĮå®¶äºº": 124591,
  "ĠSepty": 119061,
  "å¥¹æĬĬ": 80811,
  "iano": 10811,
  "è¤ļ": 66496,
  "Ġforecast": 15340,
  "ãĤģ": 9320,
  "ĠPubMed": 24879,
  "Ġgiants": 60225,
  "ĠAlan": 28661,
  "çļĦè¾¹ç¼ĺ": 122381,
  "åĪĺå¤ĩ": 62018,
  "åŁºå±Ĥç»Ħç»ĩ": 112946,
  "åŁİå¸Ĥ": 4988,
  "inuous": 28781,
  "Ġbie": 120302,
  "æĹĹå¸ľ": 53822,
  "ĠAur": 45003,
  "Ġaccentu": 96305,
  "orda": 76267,
  "ĠZahlen": 91111,
  "ÙĬØ«": 19654,
  "ĠByrne": 102061,
  "#print": 106589,
  "rection": 110865,
  "ĠTopics": 34339,
  "ĠText": 8227,
  "yset": 82270,
  "ÐµÐ´Ð¸Ð½": 49544,
  "EG": 8655,
  "Inst": 12726,
  "Ġconfused": 24007,
  "åŃ¦æĬ¥": 39140,
  "Ġuro": 112527,
  "-te": 29804,
  "Ġstrom": 58708,
  "ibo": 37969,
  "è°¢": 4882,
  "ĠÐ¡Ð°Ð½": 80112,
  "ÙĬØµ": 98177,
  "å½ĴæĿ¥": 58918,
  "Ġgrandi": 66813,
  "Bir": 120619,
  "Ġmaximum": 8173,
  "çĥĪæĹ¥": 105510,
  "legend": 66090,
  "å°¼å°Ķ": 79551,
  "Ġlifestyle": 18762,
  "Ġprojective": 111890,
  "æł¹æį®æĿĥåĪ©è¦ģæ±Ĥ": 116820,
  "Ġintensive": 28960,
  "äº¦ç§°": 111793,
  "×Ļ×£": 74199,
  "Ġdesire": 11930,
  "ç»Łç»Ł": 87825,
  "Ġìĸ´ëĸ": 55125,
  "Ġdistorted": 60227,
  "é¡¯": 18551,
  "Ġclamped": 126540,
  "Ġrobbed": 96285,
  "ĠEdinburgh": 41274,
  "à³ģà²µ": 68024,
  "ÚĨÙĩ": 48312,
  ").Ċ": 5772,
  "å¼ķèµĦ": 70003,
  "ÏĢÎ¿": 14226,
  "æ¼²": 57966,
  "Dub": 124280,
  "ë°ķ": 84062,
  "CRC": 84344,
  "ĠArea": 16088,
  "Ġcombining": 26179,
  "é¡ºåºı": 18143,
  "Compar": 32278,
  "Mother": 71109,
  "Ġdispute": 26534,
  "ĠMar": 3122,
  "å¯¹äººä½ĵ": 93982,
  "Ġprophets": 60627,
  "sql": 38904,
  "Ġrectangular": 35480,
  "Ġ-->ĊĊ": 68373,
  "Ġn": 313,
  "ĠMajesty": 61329,
  "ĠÐ¸Ð½ÑģÑĤÑĢÑĥÐº": 125165,
  "ĠMeredith": 94799,
  "å¿½çĦ¶": 16149,
  ".com": 2193,
  "ĠÐ¾Ð±ÑĬÑıÑģ": 76496,
  "Ġpros": 17094,
  "ä¸¥æł¼æİ§åĪ¶": 101669,
  "åºĶæ¿Ģ": 89595,
  "Ġswapped": 123698,
  "é¢ĩæľī": 63559,
  "ĠExclusion": 117170,
  "raum": 74719,
  "ifer": 13219,
  "éĻĪåĪĹ": 68189,
  "ç«ĭé¦¬": 124312,
  "fficiency": 24239,
  "attention": 80279,
  "ä¿®ç½Ĺ": 102219,
  "è§Ĥå¯Ł": 9144,
  "ÑĩÑĥ": 35640,
  "ĠÐ²ÑĤÐ¾ÑĢÐ¾Ð¹": 66985,
  "æĭ¿çł´": 94438,
  "Ġug": 12043,
  "åħ¶æ¬¡æĺ¯": 70196,
  "Ġmapper": 101070,
  "kter": 64905,
  "Ġimprovement": 12218,
  "å¹¶éĿŀæĺ¯": 126678,
  "çļĦæ²»çĸĹ": 56556,
  "è¯¾åłĤä¸Ĭ": 67525,
  "æ²Ĵäºĭ": 99536,
  "\\Ċ": 35211,
  "{g": 47254,
  "Ġgroundwork": 102099,
  "åľ¨æ²¡æľī": 62884,
  "æķ°åĢ¼": 24292,
  "Ġhen": 33488,
  "æī¹éĩı": 60540,
  "ĠMouse": 51402,
  "htar": 103437,
  "ĠHelp": 17253,
  "å¾Īä¸į": 32746,
  "çļĦæĶ¿æ²»": 38297,
  "Ġdisposit": 59357,
  "Ġmovimento": 68757,
  "Ġreproduction": 29655,
  "ĠDegree": 36216,
  "ĠAssy": 79895,
  "Ġbiome": 71787,
  "ĠÐºÐ½Ð¸Ð³Ð¸": 92098,
  "othy": 25045,
  "ĠSelf": 16463,
  "Ġlibrarians": 100966,
  "Ġblanc": 77573,
  "åĲ¬è§ģ": 28702,
  "Ġtact": 19140,
  "ĠÐ»Ð¾ÐºÐ°": 116191,
  "ĠSchools": 25772,
  "fighting": 111283,
  "Ġexamining": 28531,
  "åĵĪå¸Į": 93469,
  "Ġsomatic": 68488,
  "ĠTig": 80355,
  "à¹ģà¸Ļà¸°à¸Ļà¸³": 123269,
  "Ġsphere": 25352,
  "Ġtrimmed": 83127,
  "Ġmodification": 24529,
  "çĿĢå¥¹çļĦ": 99851,
  "ĠØ¬ÙĪ": 75691,
  "ÑīÐ°": 11796,
  "Ġmixing": 24394,
  "Ġbrushing": 65717,
  "èģĶç³»çĶµè¯Ŀ": 75563,
  "Arrays": 40227,
  "Ġarrival": 22206,
  "john": 95006,
  "Transaction": 35540,
  "Ġroadway": 104942,
  "ĠMIT": 34126,
  "Ġrequiring": 21314,
  "çľĪ": 115923,
  "-control": 22063,
  "Ġeste": 11751,
  "ä¹Łä¸įä¼ļ": 18962,
  "running": 87843,
  "ç¡¬å¸ģ": 79025,
  "ĠProgn": 91248,
  "çŁ¥éģĵä»ĸ": 97875,
  "Ġcloseness": 102154,
  "ä½łè¿Ļæĺ¯": 100046,
  "ĠANALYSIS": 89223,
  "Connection": 25071,
  "}$$ĊĊ": 69128,
  "Ã±a": 20529,
  "å¤ĸè§Ĥ": 34312,
  "Õ«Õ¿": 70903,
  "æ¯Ķæĭ¼": 124595,
  "Ġlegisl": 15433,
  "unction": 4237,
  "Ġwoodland": 83817,
  "Ġcows": 42926,
  "ĠKatrina": 96057,
  "Ġinterventions": 19321,
  "ĠØ£ÙĨÙĩØ§": 80192,
  "Ġkinematic": 105116,
  "unning": 12611,
  "ĠPresence": 74064,
  "ĠPolymers": 123560,
  "æ£ĢæŁ¥ç»Ħ": 109433,
  "ĠØ²ÙĨØ¯Ú¯ÛĮ": 57542,
  "çĽ¸ä¿¡æĪĳ": 111753,
  "à¹Īà¸¡": 19918,
  "reta": 59209,
  "æŁ¥çľĭ": 15351,
  "Ġhallway": 59413,
  "iled": 8004,
  "æįķæįī": 45950,
  "Õ¸Õ²": 55494,
  "Ġbeb": 59439,
  "áº§": 32692,
  "anye": 116839,
  "ĠFaust": 90833,
  "Ġspacing": 41589,
  "Ġreinvest": 119177,
  "Ġchocolate": 21200,
  "è¡Ģè¿¹": 114502,
  "Ġtiáº¿p": 119774,
  "ĠÐ¸ÑĤ": 70570,
  "×ķ×ł×": 40811,
  "á¿¶": 45833,
  "ĠStarted": 63232,
  "Ġcompatible": 29523,
  "å¥¹åİ»": 103413,
  ".z": 38514,
  "åĨ²å¤©": 99206,
  "ĠRAM": 36357,
  "ĠpÅĻed": 29256,
  "åĲİçĶ¨": 126526,
  "Ġdischarged": 47635,
  "ĠTower": 36788,
  "Ġfundraiser": 122214,
  "Ġplayed": 8178,
  "Ġà¦Ńà¦¾à¦²": 83105,
  "Ġestudo": 59294,
  "Ġmala": 88046,
  "ĠlÃ¶": 84715,
  "çļĦèį¯": 102081,
  "Ġ^{": 57354,
  "ĠMPa": 53470,
  "round": 1373,
  "ĠfÃŃsica": 70520,
  "Ġgarnered": 80586,
  "å¹²æī°": 26058,
  "è½¦çīĮ": 126694,
  "Ġstrain": 16559,
  "ĠĠĠĠĠĠĠĠĠĠĠĠĠĠĠĠ": 1032,
  "ĠYour": 5375,
  "Ġcarbide": 111351,
  "Ġmonograph": 126567,
  "åĽ´å¢Ļ": 94232,
  "å¥³çİĭ": 58791,
  "ĠrÃ³Å¼nych": 101482,
  "{\"": 24313,
  "ĠSchule": 66098,
  "à¯ģà®±": 73156,
  "å±ħå¤ļ": 93715,
  "ĠGentiles": 96961,
  "è¿ĺæľª": 42100,
  "bps": 49536,
  "çļĦåĪĽæĸ°": 122474,
  "ĠMinisters": 65954,
  "ĠØ§ÙħØ§": 40062,
  "Ġtenga": 127019,
  "Ġroom": 4772,
  "á»±c": 75272,
  "jack": 54031,
  "ceans": 37405,
  "åı¯ä»¥èĢĥèĻĳ": 82910,
  "unky": 113161,
  "äºĮåįģä¸ī": 104212,
  "à°¾à°¨": 73661,
  "kami": 63305,
  "master": 31875,
  "çļĦæĸ¹æ³ķæĺ¯": 107120,
  "Ġcoke": 112790,
  "ä¸īåĲį": 88533,
  "çªģå¦Ĥåħ¶": 75034,
  "ãģªãĤīãģªãģĦ": 97983,
  "åīµæĸ°": 79037,
  "ĠShear": 120361,
  "ĠPoems": 73042,
  "ĠJimmy": 40983,
  "Ð·Ð¾Ð²": 53018,
  "COPY": 119913,
  "Ġprobe": 26071,
  "ĠSensory": 101581,
  "çĶŁå§ľ": 65144,
  "_model": 36666,
  "ĠsegÃºn": 52704,
  "Zl": 122324,
  "Vin": 87742,
  "ĠØ§Ø¯Ø§ÙħÙĩ": 85235,
  "åıĳå°Ħ": 28937,
  "æĸ°åħ´äº§ä¸ļ": 116198,
  "åĮħè¢±": 90757,
  "åĢĴéĢĢ": 108863,
  "ĠÐ´Ð¾Ð²Ð¾Ð»ÑĮÐ½Ð¾": 90415,
  "Ġ];": 58763,
  "=\"#": 21379,
  "Ġanti": 8314,
  "ĠÐ¸ÑģÐºÑĥÑģ": 57235,
  "Cas": 72571,
  "Ġlocks": 50944,
  "Ġarrested": 25488,
  "Ġshooter": 85898,
  "æĺ¯æľī": 12594,
  "Ġ×©×ľ×ł×ķ": 117973,
  "apon": 25185,
  "appen": 50415,
  "Ġ×Ķ×¡×¤×¨": 92024,
  "Ġopioid": 56183,
  "ĠJudiciary": 109143,
  "è·³æ°´": 125881,
  "ĠØ®Ø·Ø±": 73882,
  "ĠÑįÑĤÐ¾Ð³Ð¾": 24977,
  "ĠOctal": 29045,
  "entric": 46769,
  "æľīæĹł": 33611,
  "ç¥ŀä»Ļ": 50210,
  "deck": 57508,
  "Ġcomparing": 19844,
  "Ġvirt": 7049,
  "è¿Ļç±»": 22029,
  "Ġcruel": 33831,
  "Ġ?": 4054,
  "Ġgraphs": 28657,
  "åŃ¦åĪ°": 68649,
  "ĠØ§ÙĦÙħØ³Øª": 27252,
  "Ġfirearm": 71149,
  "éĻįä½İ": 8964,
  "ĠSt": 774,
  "ĊĠĠĠĠĊ": 29406,
  "åį«çĶŁéĻ¢": 84061,
  "-red": 57491,
  "VN": 103329,
  "çļĦç§įç±»": 84576,
  "ĠØªØ´Ø®ÛĮØµ": 127986,
  "ĠÐºÐ¾Ð½ÐµÑĩÐ½Ð¾": 99260,
  "Ġà¦¬à¦¿à¦¶": 38314,
  "ifen": 59586,
  "Ġaston": 41304,
  "-report": 77002,
  "653": 26681,
  "Ġsnork": 119254,
  "èĶ·": 91466,
  "ĠAuthorization": 88805,
  "åīĽæīį": 61955,
  "[key": 47986,
  "ãģ¾ãģł": 88637,
  "é¡": 873,
  "ĠRegister": 23216,
  "Ġsowie": 38266,
  "elan": 94053,
  "å·¥ä½ľåľ¨": 117074,
  "rian": 9076,
  "Ġhomelessness": 75061,
  "ãĥĹãĥ¬": 100650,
  "æĹłæķ°æ¬¡": 106037,
  "Ġperpetuate": 115842,
  "çļĦè¿ĲåĬ¨": 63897,
  "æķħæĦıçļĦ": 108789,
  "ä¼łåĬ¨": 44784,
  "Ġengaged": 15741,
  "å®¶æĹıçļĦ": 94671,
  "èĳ¡": 15856,
  "Ġery": 41301,
  "Ø§ÙĤØªØµ": 67824,
  "Long": 20151,
  "Institute": 88703,
  "ernacle": 116878,
  "ĠÐºÐ°Ð¶Ð´Ð¾Ð³Ð¾": 64434,
  "ä¸»èĲ¥ä¸ļåĬ¡": 87404,
  "åįķçº¯çļĦ": 68665,
  "å¿ĥæĢģ": 30742,
  "åĽĽæĺ¯": 43828,
  "ĠXIII": 63758,
  "Ãªu": 88551,
  "anst": 64211,
  "æŀ«": 20981,
  "çĦ¡äºº": 110385,
  "Ġobjective": 12801,
  "ĠÐ´ÐµÑģÑıÑĤÐ¸": 101107,
  "ä»¶çļĦ": 22900,
  "ÐºÐ¾ÑģÑĤÑĮ": 79916,
  "èĥ¸èĨĽ": 83331,
  "Ġmarriage": 13474,
  "Ġá»į": 119284,
  "ä¸ºä»Ģä¹Īåĳ¢": 103475,
  "ĉr": 50296,
  "ĠDarius": 126994,
  "continu": 47248,
  "Appl": 111525,
  "gamma": 18480,
  "×Ļ×ł×Ļ": 53810,
  "ĠEditions": 105633,
  "Ġfo": 16642,
  "Ġcompon": 4402,
  "ĠMn": 35492,
  "Ġterd": 48296,
  "Ġprofession": 9471,
  "ail": 879,
  "Ġbaking": 24288,
  "âĢĵ": 1127,
  "Ġexplorer": 81723,
  ".Â«": 100443,
  "Ġcomer": 64907,
  "è·Ŀç¦»": 9377,
  "Ġkneeling": 123540,
  "ëĬĲ": 99828,
  "utes": 3009,
  "ĠÐ´Ð°Ð½Ð½Ð¾Ð³Ð¾": 89624,
  "ĠØ§ÙĦØªØ¬": 71487,
  "Ġswe": 7059,
  "Ġreactive": 34449,
  "ĉĉĉĉ": 3664,
  "Ġconflicts": 22633,
  "Ġfutures": 46112,
  "æĮ¥": 5461,
  "ÑĪÐµÐ¹": 29377,
  "åĮºä½į": 89282,
  "ĠQuery": 43946,
  "poons": 24885,
  "çĪ±çļĦäºº": 94318,
  "çººç»ĩ": 39440,
  "Ġhated": 42541,
  "Ġcontingent": 54393,
  "èĥĮä¸Ĭ": 52561,
  "ILES": 65937,
  "ochem": 12177,
  "Ġinformational": 62136,
  "çĶ¨æĪ·çļĦ": 47353,
  ".Printf": 66759,
  "ä¸ĭåŃ¦æľŁ": 113378,
  "CMD": 119890,
  "992": 28224,
  "à¤Ĥ": 9902,
  "ĠnÃ©cess": 44233,
  "ĠVisiting": 101557,
  "Ġobstructive": 78510,
  "ĠLuis": 38831,
  "æĪĳæĦŁåĪ°": 101745,
  "çłĶç©¶åıĳçİ°": 82780,
  "ä¹¦ä¸Ń": 34378,
  "ä¸Ńéĥ¨": 47277,
  "ä¸Ģè¯´": 42514,
  "oplankton": 72480,
  "á»«": 97036,
  "æĪĳä»¬ä»Ĭå¤©": 112356,
  "çİ°çĬ¶": 23653,
  "åĽºå®ļ": 10282,
  "åĮĢ": 14537,
  "Ġtheir": 786,
  "ĠGebÃ¤": 117127,
  "å¥³ç¥ŀ": 49730,
  "IMA": 40425,
  "irms": 12432,
  "ĠÐ¾ÑĤÐ¿ÑĢÐ°Ð²": 120936,
  "éĦ§": 118902,
  "Ġproblems": 4454,
  "ä¹¡æĿĳæĹħæ¸¸": 103027,
  "Ã¥l": 52039,
  "ĠSergio": 89882,
  "ampi": 34602,
  "implement": 101707,
  "ĠAlone": 96608,
  "ĠRadical": 40660,
  "ĠERA": 64454,
  "Ġvoluntary": 32739,
  "ĠÙĪÙĬØ¹": 116364,
  "ĠReviewed": 83391,
  "Ġinfections": 16947,
  "Hou": 103482,
  "_iterator": 96557,
  "à¹īà¸§": 20139,
  "ĠpolÃŃ": 24503,
  "Ġtutorial": 24038,
  "ĠDowns": 106248,
  "Ġfavorably": 112294,
  "ĠÐ¼Ð°ÑģÑģÐ°": 86640,
  "dk": 27716,
  "ims": 23897,
  "arthen": 125670,
  "Ġecosystems": 29810,
  "éĤ£ä¹Īå¤ļçļĦ": 114662,
  "691": 29265,
  "×ķ×ľ×Ķ": 47333,
  "daq": 97015,
  "Ġquoted": 31037,
  "é½¿": 13234,
  "upakan": 30710,
  "Ã¡sok": 100735,
  "-treatment": 77231,
  "mittedly": 126857,
  "186": 6917,
  "Ġdoping": 79439,
  "æľīå¤§": 48906,
  "ä¸Ń": 525,
  "Daniel": 45031,
  "åħ³æľº": 123673,
  "è¿Ļç¯ĩæĸĩç«ł": 60345,
  "ĠÐ¿ÑĢÐ¸Ð²Ñĭ": 103907,
  "Ġoutskirts": 98654,
  "æ±ºå®ļ": 37289,
  "ĠLips": 103332,
  "ĠØ§ÙĦØªØ´": 78020,
  "æĬ±ä½ı": 69203,
  "ecip": 72537,
  "éĢĢå½¹åĨĽäºº": 75552,
  "ä¹¡æĿĳ": 15103,
  "çļĦåĪ¤æĸŃ": 123271,
  "Ġgeneration": 9353,
  "Ã³lica": 88982,
  "åĨįæİ¥": 120522,
  "ä¼łè¯´ä¸ŃçļĦ": 89302,
  "ĠØªÙĨØ¸": 122863,
  "Ġeras": 100021,
  "Ġonze": 57181,
  "pol": 16717,
  "çļĦè¡¨": 68145,
  "{f": 46991,
  "bef": 90126,
  "Ġvoit": 98717,
  "åĬª": 6281,
  "ĠFog": 86176,
  "Ð¾Ð¿ÑĢÐ¸Ñı": 70836,
  "ĠLighting": 80664,
  "ĠHug": 24133,
  "Ġcartoons": 94631,
  "å¹´éĩĳ": 81946,
  "çī©åĬĽ": 103829,
  "é£İåĮĸ": 127180,
  "Ġgrasslands": 97400,
  "ĠCaled": 125659,
  "<｜place▁holder▁no▁363｜>": 128363,
  "Ġapproximated": 89378,
  "cel": 8024,
  "Ġambigu": 30461,
  "ĠASAP": 120967,
  "Ġcanvas": 33578,
  "é¢ĦåĳĬ": 75555,
  "à®©": 16045,
  "Ġdown": 1910,
  "ĠHabitat": 70665,
  "ĠÑĢÐ°ÑģÐ¿Ð¾Ð»Ð¾Ð¶": 57277,
  "ĠMellon": 118080,
  "Ġeukary": 57359,
  "olate": 50004,
  "ĠGuan": 89374,
  "Ĳ×ĳ": 119019,
  "ĠPlan": 7781,
  "ĠÎ¸Î·": 51008,
  "Buttons": 97177,
  "ĠOuv": 51361,
  "à¸´à¸ĩ": 37207,
  "å®īåħ¨å¸¦": 117213,
  "uminum": 70151,
  "osto": 25987,
  "cutaneous": 53858,
  "Ġdonde": 28990,
  "ĠðŁĵ": 50794,
  "Ġsensitivities": 106516,
  "æ¼Ķåĩº": 25590,
  "ĠĠĠĠĠĠĠĠĠĠĊ": 90389,
  "íĥľ": 38825,
  "ocultural": 106753,
  "åħ¢": 52754,
  "VOL": 102270,
  "andin": 44099,
  "æ¡ĤèĬ±": 73962,
  "ĠAAI": 106293,
  "cientists": 65002,
  "Ġdisput": 15922,
  "Ġ|=": 86238,
  "Ġconditioned": 60315,
  "Ġwoman": 6626,
  "ĠÐĵÐ¾ÑģÑĥÐ´Ð°ÑĢ": 121013,
  ".l": 3314,
  "æŀģçĤ¹": 95360,
  "è»¢": 53988,
  "å¾ŀäºĭ": 125349,
  "Ġintrusive": 109649,
  "Ġà¦¬à¦¸": 108114,
  "global": 31754,
  "Ġwissenschaft": 109685,
  "Ġthirsty": 110233,
  "ĠØ¬Ùĩ": 32455,
  "åĴĮå»ºè®®": 65931,
  "<｜▁pad▁｜>": 2,
  "ĠTwenty": 34689,
  "ĠGuangzhou": 109452,
  "enÃ§a": 82047,
  "ĠÐ¿ÑģÐ¸": 41977,
  "-gluc": 127657,
  "à¬°": 42354,
  "String": 3524,
  "perm": 24183,
  "ĠÐ¾ÑģÑĥ": 46622,
  "åıĹä¼¤": 27605,
  "åŁºæľ¬éĿ¢": 101937,
  "ĠOsborne": 99776,
  "Ġverwend": 71832,
  "çļĦæĬ¥åĳĬ": 83079,
  "Ġthreaded": 87288,
  "åĩºçı¾åľ¨": 75333,
  "park": 50161,
  "Window": 27553,
  "LT": 35524,
  "ĠArchive": 34443,
  "åĴĮæĶ¿æ²»": 74218,
  "Ñĳ": 9763,
  "ĠEssex": 71650,
  "ĠOxidation": 126470,
  "ĠProsper": 100533,
  ",Skip": 121099,
  "éĢļè¿ĩè¿ĻäºĽ": 123812,
  "farm": 113233,
  "ĠLego": 120213,
  "REEN": 77533,
  "åĮħåİ¢": 121282,
  "&S": 112537,
  "Ġincreasingly": 13528,
  "Ġdoctrines": 74671,
  "çķĻè¨Ģ": 32553,
  "Ġnossa": 74299,
  "ĠJar": 40907,
  "Ġbody": 3197,
  "è¡¡éĩı": 34637,
  "))+": 127522,
  "Ġtentative": 77217,
  "èª²": 23403,
  "ĠGoldsmith": 84371,
  "service": 26707,
  "Ġà¸Ħà¸·à¸Ń": 54429,
  "voor": 53633,
  "ĠRad": 9683,
  "Ġduplex": 102582,
  "wang": 60646,
  "æľīéĻĲåħ¬åı¸": 9918,
  "åĲ®": 122150,
  "/build": 102018,
  "port": 698,
  "à±į": 11824,
  "mens": 87693,
  "Ġcolabor": 69735,
  "sylvania": 21316,
  "hyde": 41844,
  "éĸĭçĻ¼": 59825,
  "Clicked": 113927,
  "Ø§Ø¨ÙĤ": 78247,
  "æĵįä½ľçļĦ": 77376,
  "ä¸ŃåĽ½ç»ıæµİ": 74996,
  "Ġ×Ĺ×Ļ×Ļ×Ŀ": 106062,
  "Ġperish": 78792,
  "Sl": 15475,
  "à¸ªà¸¸à¸Ĥà¸łà¸²à¸ŀ": 88673,
  "ference": 2838,
  "ĠHapp": 43283,
  "ĠÙĪØ§ÙĦÙħ": 33203,
  "ĠChambers": 71198,
  "ä½¿çĶ¨æĹ¶": 84580,
  "æĪĲå¥Ĺ": 119036,
  "à§Ģà¦ķà§įà¦·": 112339,
  "Ã¡l": 8518,
  "å¤©æĺİ": 115815,
  "Ġyoure": 112675,
  "Ġspr": 15157,
  "Ci": 56023,
  "á½´Î½": 77480,
  "ĠDip": 41099,
  "Ġintest": 37047,
  "äºĨä¸Ģå®ļ": 94392,
  "çĴŁ": 79519,
  "å£«åįĴ": 105608,
  "æŁ¬åŁĶå¯¨": 110806,
  "ĠMATH": 94872,
  "åİŃ": 84375,
  "çŃĶåºĶ": 23367,
  "ching": 14474,
  "èĬĤèĥ½åĩıæİĴ": 124437,
  "Ġfeels": 14078,
  "Ġtraded": 40739,
  "Ġiss": 2602,
  "Ġà®ª": 17486,
  "idelity": 45283,
  "Ġcyt": 14672,
  "æĥ³è¦ģ": 7578,
  "kid": 90046,
  "Ġdew": 64178,
  "ä¿ĥæĪĲ": 94906,
  "Literal": 98853,
  "Ġdece": 30665,
  "èĪ¹": 6664,
  "ĠIvory": 118615,
  "åħ»æĬ¤": 48667,
  "ä¿Ŀç®¡": 39742,
  "Ġfault": 14745,
  "-Fi": 38461,
  "ĠKatie": 58149,
  "Ġhundreds": 16337,
  "pdf": 38370,
  "Ġmorphology": 35990,
  "ĠChase": 42165,
  "éļĽ": 17523,
  "ĠÐ½Ð°": 1857,
  "Ġhacen": 92840,
  "gte": 87842,
  "Ġalerg": 83447,
  "éĻĲ": 2896,
  "åħĪçĶŁçļĦ": 51916,
  "å°±å¾Ī": 46233,
  "iï¬ģ": 48602,
  "Sec": 37463,
  "ĠLevi": 58113,
  "Ġpolymorphisms": 88728,
  "ĠOlymp": 17043,
  "ĠMode": 35518,
  "-services": 120983,
  "ĠStor": 106410,
  ".doc": 54002,
  "è¿Ľè¡ĮåĪĨæŀĲ": 47897,
  "ìĿĮ": 21739,
  "Ġrecalled": 37575,
  "Ġbeverage": 50289,
  "utch": 13871,
  "ĠÐ±ÑĥÐ´Ñĥ": 33692,
  "orszÃ¡g": 59548,
  "åį·äºĮ": 112364,
  "Cr": 28279,
  "Ġà´µ": 78832,
  "ĠMari": 33584,
  "lots": 116294,
  "ãģıãĤĭ": 74384,
  "Ġsuperb": 56992,
  "968": 30898,
  "ĠØ§ÙĬ": 118810,
  "ffen": 47859,
  "Ġnucl": 112662,
  "UTHOR": 59031,
  "Ġwent": 4661,
  "èĮħåı°": 79570,
  "å»ºè®¾åįķä½į": 85044,
  "Ġsales": 8432,
  "ĠEye": 38447,
  "564": 26484,
  "ĠIsaac": 39769,
  "ĠÐ½Ð°ÑĢÑĥÑĪÐµÐ½Ð¸Ñı": 107536,
  "Ð¼Ð¾ÑģÑĤÑĮ": 38476,
  "Ġelevator": 52420,
  "Ġinspir": 44636,
  "æľĥèŃ°": 60539,
  "Maybe": 32064,
  "peace": 68450,
  "è¿·ä½ł": 114219,
  "mooth": 74690,
  "åĨ¯": 18856,
  "ĠÐ¾Ð±ÑĬÐµÐºÑĤÐ°": 104871,
  "ĠConstant": 37762,
  "Ġacc": 1086,
  "çī©ä¸ļæľįåĬ¡": 109259,
  "åĪĨå¨©": 65685,
  "çļĦæĿ±è¥¿": 82886,
  "ĠAi": 52879,
  "undle": 15997,
  "ĠJika": 68896,
  "Salary": 62386,
  "Utility": 102256,
  "Ġmex": 115097,
  "ä¹¾": 15198,
  "ç»³ç´¢": 116583,
  "Ġ#": 1823,
  "Ġmein": 103985,
  "Ġchunks": 56601,
  "Ġ]]": 88285,
  "ĠMontgomery": 50388,
  "Ġcrian": 45356,
  "ellect": 12260,
  "çļĦéĥ½æĺ¯": 62095,
  "å¿§èĻĳ": 77920,
  "à²¿à²¦": 66070,
  "à¹Ħà¸¥": 92440,
  "æĿ¥è¶Ĭ": 9044,
  "dst": 119958,
  "ĠTrigger": 99573,
  "Ġimmunity": 31116,
  "åºĶçº³ç¨İ": 84912,
  "è¿ĻåĿĹ": 47553,
  "Ġappelle": 77741,
  "ÉĻ": 6554,
  "çĳļ": 74907,
  "Ġexport": 16029,
  "qrt": 7968,
  "ä½łéľĢè¦ģ": 58467,
  "å¾®çĶŁçī©": 36923,
  "self": 2161,
  "fÃ¼hrung": 86452,
  "æķ°æį®éĽĨ": 72457,
  "Ġpillar": 64133,
  "ĠYork": 4404,
  "Ġenchant": 57533,
  "ĠEspaÃ±a": 52645,
  "èµ·æºĲ": 48338,
  "Transfer": 53861,
  "-colored": 63053,
  "æİĴéĺŁ": 42660,
  "ëłĪ": 36450,
  "éĴ§": 46596,
  "Ġdesktop": 39534,
  "Ġappointed": 19594,
  "Ø§ÙĦØ¨ÙĦØ¯": 114381,
  "ĠAberdeen": 98060,
  "ĠNÃ©": 95805,
  "ĠWert": 68297,
  "ikos": 96445,
  "Ġcilantro": 109021,
  "ÑģÑĤÐ¸ÑĤÑĮ": 74438,
  "canvas": 105458,
  "æł·çļĦ": 8356,
  "ĠLegislative": 63342,
  "ä¸ĩä¸Ī": 123974,
  "gium": 107218,
  "ÑĳÑĢ": 79171,
  "åıĪä»¥": 98697,
  "ä¸ĵå¿ĥ": 67176,
  "ĠTitan": 47268,
  "Longrightarrow": 127950,
  "Ġkm": 3179,
  "æŃ¦æ±ī": 20005,
  "Î¼Î¬": 48275,
  "è®¤ä¸º": 4538,
  "-Smith": 86243,
  "Ġstumble": 97141,
  "'])Ċ": 46974,
  "ĠAlphabet": 52057,
  "Ġfiltering": 39224,
  "ĠFc": 110752,
  "uddled": 103282,
  "æīĵåĵį": 109210,
  "_POSTSU": 17203,
  "æĪĳå¦Ī": 62479,
  "Ġisotropic": 96813,
  "forest": 37680,
  "×ķ×ĵ×Ķ": 52090,
  "ĠÑĪÐºÐ¾Ð»Ñĥ": 40466,
  "Ġshock": 13421,
  ":hover": 75382,
  "åİŁåĪĻ": 7846,
  "ĠÑįÐºÑģÐ¿Ðµ": 76045,
  "Ġsingularity": 111552,
  "áŁĭ": 96185,
  "Ġlogin": 24379,
  "ä¸įæĸŃæıĲé«ĺ": 40206,
  "Ġreasonably": 28911,
  "ĠÐ·ÐµÐ»ÐµÐ½": 120189,
  "Ġinvestigating": 33136,
  "ĠHearts": 86355,
  "Movie": 52726,
  "æĢĿæĥ³": 5243,
  "Ġrestrain": 104198,
  ");//": 54785,
  "ĠLang": 22131,
  "Ġ~~": 42617,
  "à¸²à¸Ĭà¸Ļ": 105866,
  "Ġcelle": 48734,
  "Ġsyllabus": 64797,
  "è¿Ļç§įè¡Įä¸º": 126186,
  "xiety": 12029,
  "ĠMarch": 5077,
  "ÄĻci": 114890,
  "Ġtroop": 77681,
  "long": 9938,
  "ĠÑĩÐµÐ»Ð¾Ð²ÐµÐº": 35627,
  "Too": 57752,
  "å¦Ĥæŀľä½łæĺ¯": 116514,
  "ë¹": 76054,
  "Ġpenet": 21223,
  "Ġexped": 26438,
  "ĠDefinitions": 41132,
  "Ġ?????": 118352,
  "-K": 12496,
  "ĠRoch": 124759,
  "çļĦä¿¡": 59058,
  "ĠFP": 47891,
  "ĠØ§ÙĦØ£Ùħ": 34255,
  "/ui": 106572,
  "çļĦæīĭ": 10631,
  "å°ıçĻ½": 36171,
  "æī©å¤§åĪ°": 116574,
  "æ²¡åħ³ç³»": 62959,
  "æĺ¯ä¸Ģçīĩ": 70122,
  "ĠEB": 38624,
  "èĢĥè¯ķ": 9178,
  "-three": 16459,
  "vend": 121399,
  "ĠBelgium": 37736,
  "Ġmerit": 37044,
  "Ġhl": 98575,
  "ĠÐ´ÐµÐ²ÑıÑĤÑĮ": 115091,
  "å¼±çĤ¹": 74034,
  "uration": 5049,
  "Ġpayment": 11730,
  "Ġmortar": 70361,
  "ulls": 75800,
  "æĸ°åĵģ": 86366,
  "åģļè¿ĩ": 44439,
  "ĠÑģÐ»ÑĥÑĩÐ°ÐµÐ²": 99305,
  "Solutions": 57629,
  "Ð¾Ð³ÑĥÑĤ": 107511,
  "\\in": 14706,
  "æĸ°æľĪ": 80742,
  "RFC": 122729,
  "Ġbis": 14832,
  "ĠClosed": 65918,
  "å¯¾å¿ľ": 107002,
  "/gal": 41871,
  "æħĪ": 16528,
  "ç¼ºæ°´": 120611,
  "achelor": 24003,
  "Ġepit": 20683,
  "çīĻ": 7268,
  "è°£è¨Ģ": 83720,
  "-hospital": 112138,
  "éľĦ": 32420,
  "Certain": 57143,
  "à¦¿à¦·à§įà¦ł": 82195,
  "hetical": 44290,
  "____": 1686,
  "ĠGraf": 88474,
  "company": 33643,
  "tÃ³": 12516,
  "éĨĭ": 27668,
  "ĠUAV": 88114,
  "Ð¿Ð¾Ñĩ": 103467,
  "ä¼ģä¸ļ": 2229,
  "ĠFusion": 66789,
  "æĹħæ¸¸æĻ¯åĮº": 119298,
  "Ðµ": 368,
  "ç¥ŀç§ĺçļĦ": 82207,
  "êµ°": 49356,
  "ĠÑĨÐµÐ»ÑĮ": 68914,
  "å¤ªåı¤": 120377,
  "æ»¡åľ°": 125133,
  "à¸µà¸¢à¹Į": 115737,
  "Ġscheduled": 21145,
  "Ġabsor": 40831,
  "çĽ¸åħ³å·¥ä½ľ": 110026,
  "ä¼ļè®©ä½ł": 119141,
  "Ġwhite": 5403,
  "anyol": 111674,
  "éĽ»æ°Ĺ": 123835,
  "æīĺç®¡": 64160,
  "Ġdistributed": 12775,
  "æĬ¥": 1987,
  "zano": 104439,
  "èµıæŀĲ": 99476,
  "ä¸Ģåıĺ": 88790,
  "Ġoffspring": 38943,
  "ĠTer": 8915,
  "Ġterra": 38240,
  "æĪĳéĥ½ä¼ļ": 100806,
  "Ġstatewide": 71767,
  "ĠGAL": 117743,
  "km": 12492,
  "ä¸įéĶĻçļĦéĢīæĭ©": 119546,
  "çĶļæĺ¯": 107098,
  "Ġexecutable": 71187,
  "Ġzac": 126276,
  "èī°è¾Ľ": 62533,
  "Ġdams": 73377,
  "å¸ĪèĮĥ": 25305,
  "ĠWonderful": 114261,
  "atie": 15802,
  "Ġinconsistent": 42016,
  "Ġprimitive": 34917,
  "×ķ×Ľ×": 55100,
  "021": 20031,
  "Ġnegligence": 53193,
  "ç¡Ŀéħ¸": 53519,
  "ÑģÑĤÐ²ÐµÐ½Ð½Ð¾Ð¹": 40652,
  "=r": 77794,
  "Ã¼lÃ©s": 113932,
  "æľĪä»½": 16359,
  "Ġounce": 36130,
  "Ġthemed": 73234,
  "Ġdisproportionately": 89892,
  "æ¹ĺæ½Ń": 123647,
  "åĽ½åº¦": 101747,
  "à°¾à°²": 64980,
  "Ġrecall": 19988,
  "å¤§åĸľ": 80826,
  "ĠKenyan": 113784,
  "ĠSIM": 40151,
  "ãģ¦ãģĦãĤĭ": 11407,
  "Ġisolate": 47995,
  "Ġhelic": 38058,
  "ĠEdu": 46276,
  "Ġopportunistic": 111612,
  "èį¯çĶ¨": 90642,
  "ĠAttitudes": 102355,
  "æĹ¥è®¯": 91316,
  "pad": 24591,
  "align": 60339,
  "åĪĨäº«": 10054,
  "å¤©çĦ¶": 18043,
  "Ġskept": 58492,
  "ä½ľåĪĻ": 116143,
  "ĠØ³Ø§Ø®": 120802,
  "agy": 73232,
  "Ġfle": 12758,
  "ä¸īé¡¹": 73782,
  "ĠGug": 104389,
  "ãĢĭ),": 123784,
  "åı¹äºĨä¸Ģåı£æ°Ķ": 100323,
  "Ġside": 3317,
  "Ġconcret": 74268,
  "Ġcontrols": 13649,
  "Ġending": 18249,
  "æ·ĭæ¼ĵ": 58281,
  "isure": 91243,
  "ĠCollins": 31012,
  "æĿ¥åĨ³å®ļ": 94958,
  "ĠKons": 82659,
  "menu": 36065,
  "çļĦæ°´": 15885,
  "ĠÐ°Ð²ÑĤÐ¾Ð¼Ð°ÑĤÐ¸": 98555,
  "NAS": 66287,
  "ÑĢÐ¸Ð´Ð¸": 103261,
  "Ã©ment": 45979,
  "äºĮå¹´": 36881,
  "iqu": 1575,
  "oscale": 75425,
  "ĠE": 446,
  "åĲ«èĵĦ": 102419,
  "\"It": 29287,
  "ĠSeite": 65287,
  "åŁ¹åħ»": 7682,
  "]he": 98954,
  "TES": 126079,
  "Ð¿Ð¾Ð½": 86714,
  "isol": 45881,
  "ĠLiver": 28444,
  "å¹¿æ³ĽçļĦ": 51470,
  "Ġamplifier": 39505,
  "<｜place▁holder▁no▁571｜>": 128571,
  "åĴĮåĽ½éĻħ": 89250,
  "orphism": 90799,
  "!--": 17262,
  "æł¼å¤ĸ": 40603,
  "çŃīæĸ¹éĿ¢çļĦ": 42178,
  "ç§¦å²Ń": 126485,
  "è¿·äºº": 88192,
  "bbing": 37659,
  "åĲĥ": 2670,
  "Ð°Ð³": 93753,
  "Ġfamilial": 66362,
  "à¸Īà¸°à¹Ģà¸Ľà¹ĩà¸Ļ": 115491,
  "ĠNumerology": 82632,
  ".,_": 53838,
  "ĠTutor": 90881,
  "åİĦ": 45584,
  "åī§ä¸Ń": 69992,
  "ĠCompat": 93002,
  "äººåĬĽ": 21863,
  "è¯¾æĸĩ": 44155,
  "Ġpoeta": 116801,
  "Ð½Ð°ÑĩÐµ": 122065,
  "346": 20583,
  "radiol": 94337,
  "Banay": 113787,
  "Ġreact": 10640,
  "ĠTv": 118637,
  "Ġmunic": 17035,
  "Ticket": 98881,
  "ĠHCV": 84056,
  "Ġdefect": 31742,
  "Store": 24957,
  "åıĳæ³Ħ": 82802,
  "Ġmaturation": 60440,
  "æī¾åĩĨ": 82243,
  "ä¸ĬåĬł": 85368,
  "ĠStochastic": 121561,
  "Ġ<%": 119833,
  "çĳ": 4948,
  "å§Ĩæĸ¯": 44807,
  "åľ¨åĲĦä¸ª": 113839,
  "Ġimprob": 102704,
  "Ġfelony": 71509,
  "089": 34366,
  ")m": 109295,
  "unts": 50196,
  "/Z": 69982,
  "Ġliaison": 79137,
  "Ġprostate": 35290,
  "Twitter": 67025,
  "èĻļå¿ĥ": 111083,
  "æ£Ģå¯Ł": 17615,
  "ĠêµĲìľ¡": 58324,
  "\\Support": 59978,
  "incorporated": 124816,
  "åĺļ": 35788,
  "Ġdressed": 30683,
  "åºĶä¸º": 58354,
  "æĪªéĿ¢": 41768,
  "×ķ×ł×Ļ×ª": 97410,
  "ÙĬÙĨÙĬ": 93403,
  "Ġbuscar": 95968,
  "à¸¡à¸Ļ": 60614,
  "Ġencontr": 43701,
  "ëĭ¤": 3874,
  "radius": 29495,
  "ĠRichardson": 51612,
  "å«Įå¼ĥ": 61667,
  "ĠIncome": 31603,
  "opl": 21158,
  "ĠWorks": 6266,
  "Ġseparates": 62039,
  "Ġlocale": 55945,
  "ummy": 25189,
  "Ġjard": 57562,
  "Case": 15434,
  "Ġcite": 45415,
  "æĤĦ": 15895,
  "æ»¤éķľ": 92625,
  "ç¾ŀæĦ§": 120344,
  "çŁ³åĻ¨": 87230,
  "ãĥĥãĥī": 89880,
  "&C": 101318,
  "Ġaccessible": 15739,
  "Ġcontaminated": 41838,
  "'=>'": 72336,
  "eq": 23225,
  "aust": 92168,
  "Ġjets": 69541,
  "åĢ¼çıŃ": 40070,
  "Ġcategorize": 107434,
  "Ġpesticides": 48060,
  ")the": 96612,
  "âĢľĊ": 81420,
  "ĠEukary": 86695,
  "Ġthrom": 70316,
  "ĠEating": 54370,
  "Ð¡Ðļ": 73108,
  "éĽ»èħ¦": 67529,
  "Ø§ÙĤÙĦ": 107056,
  "ĠLazarus": 113198,
  "Ġligands": 62860,
  "Ġhepatocellular": 103444,
  "320": 12715,
  "ç¡®ä¿¡": 100279,
  "Ø·Ø©": 32113,
  "Ġanalyte": 119451,
  "Selection": 56907,
  "ĠÐ´ÑĢÑĥÐ³Ð¸Ðµ": 48741,
  "addr": 52304,
  "Ġlenses": 42558,
  "ĠGetting": 34121,
  "ĉstatic": 53495,
  "Ġepidemic": 42213,
  "è²§": 64861,
  "è¯ĿéŁ³åĪļèĲ½": 124778,
  "Ø§Ø¦Ø©": 57893,
  "ivamente": 38819,
  "=input": 103828,
  "å¥¹éĥ½": 104635,
  "èĳ¡èĲĦçīĻ": 72194,
  "Ġloops": 38300,
  "445": 23121,
  "ĠdÅĤug": 75721,
  "iteral": 91809,
  "angs": 33561,
  "ubbed": 50093,
  "written": 42488,
  "xf": 47231,
  "heads": 49780,
  "LOAD": 42627,
  "éķ¿äºĨ": 56014,
  "Ġailments": 90410,
  "Ð¾ÑĢÐ°": 31340,
  "ìĸ´ì§Ħ": 98395,
  "è¾ĥå¼º": 61062,
  "ibling": 53821,
  "ownik": 66826,
  "Ġwhereby": 35566,
  "Games": 81459,
  "éĥ½å¾Ī": 20885,
  "aude": 46469,
  "ĠRandall": 83745,
  "Ġscope": 13680,
  "ĠÑħÐ°ÑĢÐ°ÐºÑĤÐµÑĢÐ¸ÑģÑĤÐ¸": 56324,
  "Features": 72361,
  "ĠECONOM": 109837,
  "particularly": 69639,
  "-round": 31989,
  "Ġà¦®à¦¨": 97301,
  "ĠXXXXX": 119767,
  "!âĢĿ": 8167,
  "Ġphosphate": 37151,
  "Nan": 82763,
  "Ġdnia": 86944,
  "oused": 72803,
  "Ġvoy": 30783,
  "ĠPartition": 94409,
  "California": 63611,
  "ä¿ĺèĻı": 90989,
  "-contained": 112803,
  "ç½®ä¿¡": 49889,
  "Ø§ÙĥÙĦ": 106256,
  "å°ĳçĪ·": 43580,
  "åıįæŃ£": 22581,
  "-reg": 24166,
  "å¯¹åºĶçļĦ": 26749,
  "æīĩå½¢": 113405,
  "ĠCalab": 122482,
  "éĻ¶": 12683,
  "ZG": 115593,
  "elier": 76870,
  "Ġdereg": 101600,
  "Ġheavenly": 58403,
  "Ġduch": 116315,
[...]
